<unk>	0
<s>	0
</s>	0
▁t	-0
in	-1
▁a	-2
er	-3
▁th	-4
on	-5
▁s	-6
re	-7
en	-8
at	-9
▁w	-10
or	-11
▁the	-12
▁c	-13
es	-14
it	-15
an	-16
▁o	-17
ing	-18
ed	-19
▁f	-20
▁b	-21
is	-22
▁p	-23
ou	-24
al	-25
ar	-26
▁h	-27
▁m	-28
nd	-29
▁to	-30
▁d	-31
▁of	-32
▁in	-33
ic	-34
le	-35
as	-36
▁and	-37
om	-38
ion	-39
ll	-40
▁l	-41
ent	-42
▁S	-43
▁n	-44
▁T	-45
st	-46
ro	-47
▁re	-48
▁g	-49
et	-50
ly	-51
ac	-52
▁A	-53
▁e	-54
ve	-55
▁C	-56
ut	-57
ot	-58
id	-59
▁I	-60
▁on	-61
ec	-62
am	-63
ow	-64
ay	-65
ad	-66
ig	-67
▁for	-68
im	-69
▁M	-70
▁u	-71
ver	-72
▁y	-73
▁wh	-74
ur	-75
se	-76
▁P	-77
ol	-78
▁B	-79
il	-80
▁be	-81
▁st	-82
ter	-83
he	-84
ith	-85
▁is	-86
ir	-87
ch	-88
▁that	-89
ation	-90
▁1	-91
▁D	-92
▁with	-93
▁you	-94
▁W	-95
▁R	-96
th	-97
ers	-98
ce	-99
el	-100
▁F	-101
▁it	-102
▁H	-103
▁(	-104
▁as	-105
ag	-106
▁an	-107
ill	-108
ke	-109
▁2	-110
▁r	-111
ere	-112
▁"	-113
em	-114
if	-115
▁N	-116
ts	-117
▁L	-118
▁G	-119
od	-120
▁at	-121
ri	-122
ct	-123
pp	-124
igh	-125
ul	-126
ate	-127
us	-128
▁con	-129
and	-130
ore	-131
▁E	-132
ld	-133
um	-134
est	-135
un	-136
rom	-137
ab	-138
▁or	-139
op	-140
▁pro	-141
▁O	-142
ain	-143
▁com	-144
ess	-145
ew	-146
▁v	-147
oc	-148
▁we	-149
▁The	-150
os	-151
▁from	-152
res	-153
▁sh	-154
ist	-155
▁by	-156
▁he	-157
qu	-158
▁ha	-159
▁was	-160
ap	-161
▁su	-162
ack	-163
▁ex	-164
▁are	-165
▁J	-166
ity	-167
▁ch	-168
▁this	-169
ive	-170
all	-171
ment	-172
end	-173
▁not	-174
ear	-175
ort	-176
ard	-177
ust	-178
art	-179
ies	-180
ight	-181
▁le	-182
▁de	-183
out	-184
▁se	-185
ant	-186
ost	-187
00	-188
ak	-189
▁al	-190
ould	-191
▁tr	-192
our	-193
ect	-194
▁ab	-195
iv	-196
▁j	-197
ast	-198
▁U	-199
▁sp	-200
ome	-201
ally	-202
▁pl	-203
gh	-204
▁have	-205
nt	-206
▁k	-207
ok	-208
▁up	-209
▁Th	-210
rou	-211
▁all	-212
ud	-213
ge	-214
▁wor	-215
▁K	-216
▁go	-217
▁out	-218
ff	-219
▁do	-220
are	-221
ine	-222
ep	-223
ure	-224
ide	-225
ial	-226
▁his	-227
▁-	-228
▁St	-229
ip	-230
▁but	-231
ame	-232
one	-233
ice	-234
▁can	-235
og	-236
ous	-237
01	-238
▁3	-239
ike	-240
ra	-241
age	-242
ans	-243
ions	-244
▁ne	-245
ong	-246
▁their	-247
▁will	-248
ich	-249
pl	-250
▁V	-251
ire	-252
..	-253
▁they	-254
▁your	-255
ind	-256
▁sa	-257
pt	-258
ub	-259
▁ad	-260
▁who	-261
▁In	-262
her	-263
ime	-264
iz	-265
▁us	-266
ue	-267
ia	-268
▁has	-269
ated	-270
ks	-271
ber	-272
▁so	-273
▁me	-274
▁more	-275
act	-276
▁cl	-277
▁about	-278
▁int	-279
▁off	-280
ook	-281
per	-282
ake	-283
ie	-284
very	-285
▁one	-286
▁Ch	-287
▁Y	-288
ry	-289
ass	-290
ite	-291
▁un	-292
able	-293
▁like	-294
uc	-295
ick	-296
own	-297
ace	-298
▁en	-299
ail	-300
ther	-301
ile	-302
ign	-303
ary	-304
ven	-305
▁cont	-306
ish	-307
▁im	-308
ib	-309
ose	-310
au	-311
▁man	-312
ach	-313
ell	-314
ence	-315
▁comp	-316
▁ac	-317
▁4	-318
orm	-319
▁ag	-320
▁my	-321
▁over	-322
ays	-323
▁201	-324
av	-325
▁year	-326
▁some	-327
▁when	-328
ase	-329
ress	-330
ord	-331
ance	-332
▁if	-333
fter	-334
▁get	-335
ical	-336
▁5	-337
▁sc	-338
▁qu	-339
▁dis	-340
▁res	-341
ens	-342
ings	-343
ations	-344
--	-345
ob	-346
mer	-347
▁any	-348
▁which	-349
oin	-350
▁per	-351
ree	-352
▁'	-353
ang	-354
ond	-355
▁pe	-356
ru	-357
▁would	-358
▁ar	-359
cl	-360
▁were	-361
▁new	-362
▁time	-363
▁pre	-364
so	-365
▁bl	-366
▁said	-367
ound	-368
▁what	-369
▁no	-370
vel	-371
▁them	-372
▁app	-373
."	-374
ors	-375
ian	-376
old	-377
▁her	-378
ough	-379
ult	-380
▁there	-381
king	-382
▁Wh	-383
▁had	-384
▁just	-385
com	-386
▁kn	-387
▁our	-388
reat	-389
▁into	-390
▁after	-391
ople	-392
▁ro	-393
...	-394
ents	-395
ory	-396
ount	-397
▁bec	-398
▁than	-399
ild	-400
itt	-401
aw	-402
▁It	-403
▁been	-404
nder	-405
,"	-406
ood	-407
▁other	-408
ons	-409
ark	-410
▁part	-411
▁19	-412
▁co	-413
▁rep	-414
ove	-415
ction	-416
▁back	-417
▁inter	-418
ov	-419
ull	-420
▁tw	-421
▁rec	-422
▁people	-423
ade	-424
vers	-425
ious	-426
lic	-427
fer	-428
▁te	-429
erv	-430
form	-431
ition	-432
▁6	-433
wn	-434
▁only	-435
irst	-436
te	-437
ause	-438
amp	-439
hing	-440
urn	-441
ock	-442
▁its	-443
oy	-444
ink	-445
ne	-446
ft	-447
▁play	-448
ates	-449
tt	-450
rough	-451
▁Re	-452
ater	-453
▁$	-454
▁work	-455
xt	-456
▁pr	-457
▁also	-458
▁now	-459
ict	-460
ual	-461
oll	-462
iss	-463
▁fl	-464
▁bu	-465
ont	-466
▁comm	-467
▁under	-468
▁imp	-469
▁how	-470
▁am	-471
▁every	-472
▁We	-473
atch	-474
▁att	-475
▁fe	-476
▁she	-477
▁act	-478
les	-479
▁pol	-480
round	-481
ning	-482
▁bet	-483
▁need	-484
fore	-485
anc	-486
▁.	-487
▁supp	-488
ting	-489
▁even	-490
▁He	-491
▁7	-492
ath	-493
enc	-494
▁down	-495
▁could	-496
iew	-497
ps	-498
▁add	-499
ating	-500
cess	-501
uch	-502
▁first	-503
▁des	-504
we	-505
▁8	-506
rit	-507
ng	-508
).	-509
▁see	-510
ower	-511
ix	-512
▁This	-513
ss	-514
▁look	-515
▁may	-516
▁[	-517
▁where	-518
▁9	-519
red	-520
▁through	-521
pe	-522
▁br	-523
▁dec	-524
▁two	-525
row	-526
▁exp	-527
▁em	-528
▁Sh	-529
man	-530
▁10	-531
▁0	-532
▁know	-533
▁years	-534
ise	-535
▁hel	-536
▁did	-537
▁cons	-538
▁call	-539
▁him	-540
ident	-541
gr	-542
oss	-543
ily	-544
ics	-545
▁sec	-546
▁inv	-547
▁high	-548
▁because	-549
▁And	-550
▁Tr	-551
▁before	-552
day	-553
ble	-554
aking	-555
▁here	-556
▁most	-557
ys	-558
lect	-559
ool	-560
▁Al	-561
als	-562
ters	-563
up	-564
its	-565
ublic	-566
sel	-567
▁ind	-568
▁many	-569
oun	-570
▁min	-571
▁again	-572
▁sy	-573
▁ph	-574
ational	-575
get	-576
▁those	-577
▁ke	-578
▁Un	-579
oot	-580
▁make	-581
ied	-582
hn	-583
▁Com	-584
▁these	-585
▁use	-586
▁being	-587
ph	-588
ash	-589
),	-590
▁much	-591
▁gu	-592
▁ev	-593
▁show	-594
▁sm	-595
ased	-596
▁gr	-597
▁rem	-598
▁set	-599
ments	-600
clud	-601
ars	-602
und	-603
▁well	-604
ific	-605
▁end	-606
▁don	-607
▁ass	-608
▁New	-609
000	-610
▁way	-611
▁An	-612
ek	-613
▁then	-614
▁Pro	-615
▁mon	-616
ife	-617
ER	-618
omet	-619
ject	-620
▁long	-621
ert	-622
▁sub	-623
ative	-624
▁last	-625
▁Sp	-626
ange	-627
▁want	-628
ug	-629
rib	-630
ities	-631
▁reg	-632
▁should	-633
ible	-634
▁,	-635
▁Ar	-636
read	-637
ms	-638
▁But	-639
uring	-640
ton	-641
io	-642
ues	-643
▁inc	-644
▁good	-645
ren	-646
ax	-647
meric	-648
▁def	-649
▁Cl	-650
▁start	-651
ener	-652
▁does	-653
▁poin	-654
▁col	-655
----	-656
▁sl	-657
tern	-658
oth	-659
▁–	-660
▁op	-661
▁own	-662
▁Le	-663
du	-664
ump	-665
ited	-666
air	-667
ave	-668
ah	-669
ank	-670
//	-671
ward	-672
▁such	-673
stem	-674
▁inst	-675
az	-676
erson	-677
▁rel	-678
▁fin	-679
▁acc	-680
ful	-681
▁while	-682
▁cr	-683
ode	-684
ures	-685
▁run	-686
▁&	-687
▁day	-688
▁As	-689
▁=	-690
led	-691
ames	-692
ier	-693
▁200	-694
▁read	-695
ility	-696
ef	-697
▁ent	-698
vern	-699
other	-700
▁say	-701
▁—	-702
▁ins	-703
▁Americ	-704
ty	-705
▁You	-706
ually	-707
ner	-708
ork	-709
iel	-710
▁prov	-711
olog	-712
▁bel	-713
▁Bl	-714
ale	-715
der	-716
imes	-717
▁str	-718
▁post	-719
ets	-720
▁pres	-721
▁includ	-722
▁char	-723
▁dif	-724
__	-725
▁very	-726
▁hand	-727
ex	-728
▁eff	-729
uck	-730
▁right	-731
▁game	-732
ular	-733
ox	-734
▁Q	-735
▁12	-736
riv	-737
▁car	-738
way	-739
ason	-740
ives	-741
▁Ad	-742
▁help	-743
ik	-744
IN	-745
ists	-746
▁fr	-747
ins	-748
▁ob	-749
ism	-750
▁med	-751
ee	-752
ember	-753
▁ear	-754
▁support	-755
▁i	-756
▁sur	-757
▁trans	-758
ollow	-759
▁spec	-760
▁ret	-761
▁loc	-762
ather	-763
ines	-764
▁still	-765
▁sim	-766
oad	-767
ouse	-768
▁somet	-769
ices	-770
land	-771
ata	-772
▁:	-773
ying	-774
▁take	-775
att	-776
▁serv	-777
irect	-778
gan	-779
orts	-780
▁world	-781
ement	-782
co	-783
▁real	-784
▁Z	-785
▁going	-786
▁made	-787
arch	-788
▁ser	-789
ON	-790
▁mod	-791
ages	-792
▁If	-793
ient	-794
▁count	-795
▁too	-796
▁/	-797
▁team	-798
akes	-799
://	-800
▁though	-801
▁ext	-802
ann	-803
ple	-804
ger	-805
▁requ	-806
ted	-807
▁head	-808
sh	-809
ute	-810
▁cor	-811
▁around	-812
▁cur	-813
ants	-814
▁system	-815
gg	-816
uss	-817
▁20	-818
line	-819
▁think	-820
pr	-821
velop	-822
▁lead	-823
ince	-824
view	-825
▁sign	-826
alk	-827
▁used	-828
▁against	-829
▁On	-830
min	-831
▁public	-832
▁cle	-833
▁stud	-834
ield	-835
duc	-836
eck	-837
▁Sc	-838
ize	-839
ric	-840
▁resp	-841
alth	-842
▁things	-843
ution	-844
AT	-845
ling	-846
▁grou	-847
▁De	-848
▁sch	-849
▁par	-850
ross	-851
ense	-852
▁govern	-853
10	-854
uth	-855
▁open	-856
less	-857
▁num	-858
▁For	-859
ern	-860
ush	-861
▁iss	-862
▁find	-863
illion	-864
▁week	-865
ody	-866
▁Is	-867
▁follow	-868
iness	-869
▁Pl	-870
con	-871
▁US	-872
▁found	-873
cept	-874
▁ter	-875
▁cre	-876
▁without	-877
ience	-878
▁av	-879
▁conf	-880
bers	-881
▁three	-882
ider	-883
▁great	-884
any	-885
med	-886
▁met	-887
▁big	-888
▁got	-889
▁inf	-890
ized	-891
▁person	-892
▁No	-893
ween	-894
orn	-895
ats	-896
▁htt	-897
▁really	-898
▁Be	-899
app	-900
ically	-901
ving	-902
▁cap	-903
▁war	-904
ness	-905
riend	-906
▁11	-907
ittle	-908
▁law	-909
be	-910
▁month	-911
self	-912
cc	-913
▁Fr	-914
▁ed	-915
▁cour	-916
▁during	-917
▁bus	-918
▁gl	-919
▁differ	-920
▁det	-921
▁put	-922
ES	-923
▁same	-924
50	-925
▁exper	-926
ired	-927
▁turn	-928
ention	-929
lish	-930
▁far	-931
lease	-932
gram	-933
▁next	-934
▁power	-935
▁#	-936
▁Ex	-937
▁fam	-938
ights	-939
▁Ph	-940
OR	-941
▁report	-942
▁life	-943
▁happ	-944
ared	-945
▁state	-946
▁home	-947
▁between	-948
ved	-949
▁art	-950
▁using	-951
▁few	-952
▁less	-953
▁build	-954
reen	-955
▁Rep	-956
▁dr	-957
▁)	-958
▁wr	-959
iet	-960
▁So	-961
▁soc	-962
▁hard	-963
▁something	-964
▁leg	-965
▁Jo	-966
▁All	-967
▁might	-968
▁inform	-969
,000	-970
▁gener	-971
==	-972
▁cent	-973
▁mem	-974
hip	-975
▁better	-976
thing	-977
▁never	-978
rol	-979
els	-980
rent	-981
▁top	-982
▁pass	-983
▁list	-984
AR	-985
bs	-986
ivers	-987
▁fil	-988
ator	-989
▁sk	-990
▁bre	-991
ects	-992
ote	-993
▁bro	-994
▁comple	-995
▁Se	-996
▁15	-997
ots	-998
ards	-999
▁develop	-1000
▁offic	-1001
▁prot	-1002
▁old	-1003
aj	-1004
▁polit	-1005
me	-1006
oney	-1007
ged	-1008
ially	-1009
▁commun	-1010
ably	-1011
▁come	-1012
▁keep	-1013
▁spe	-1014
▁stand	-1015
▁*	-1016
aph	-1017
-1	-1018
wh	-1019
ream	-1020
▁val	-1021
AN	-1022
▁dep	-1023
ves	-1024
sc	-1025
▁government	-1026
ech	-1027
▁poss	-1028
ways	-1029
▁expl	-1030
ron	-1031
ital	-1032
uff	-1033
▁free	-1034
▁little	-1035
▁child	-1036
ral	-1037
▁full	-1038
▁adv	-1039
itch	-1040
▁direct	-1041
ision	-1042
ott	-1043
iving	-1044
int	-1045
▁disc	-1046
▁Or	-1047
ced	-1048
▁dem	-1049
▁tri	-1050
▁seem	-1051
▁Con	-1052
▁each	-1053
The	-1054
▁quest	-1055
▁--	-1056
rop	-1057
ane	-1058
▁wom	-1059
inal	-1060
▁let	-1061
▁both	-1062
▁says	-1063
▁sw	-1064
ected	-1065
ature	-1066
▁best	-1067
osed	-1068
▁lar	-1069
20	-1070
iver	-1071
EN	-1072
▁18	-1073
▁care	-1074
▁days	-1075
ection	-1076
▁fun	-1077
cent	-1078
sp	-1079
▁camp	-1080
ipp	-1081
▁pay	-1082
▁et	-1083
ption	-1084
▁mov	-1085
▁Go	-1086
aining	-1087
▁X	-1088
▁second	-1089
▁Mar	-1090
▁ref	-1091
▁hum	-1092
▁fact	-1093
▁bo	-1094
▁level	-1095
▁allow	-1096
ever	-1097
▁test	-1098
ret	-1099
▁hour	-1100
▁place	-1101
aff	-1102
▁There	-1103
▁form	-1104
▁point	-1105
▁dist	-1106
▁proble	-1107
ina	-1108
the	-1109
ently	-1110
ains	-1111
aps	-1112
▁el	-1113
▁Ind	-1114
atter	-1115
echn	-1116
▁data	-1117
▁program	-1118
▁mark	-1119
▁left	-1120
▁Br	-1121
▁rest	-1122
ised	-1123
br	-1124
▁del	-1125
▁pur	-1126
30	-1127
ately	-1128
▁They	-1129
ces	-1130
gy	-1131
▁po	-1132
▁stat	-1133
▁ty	-1134
orth	-1135
ency	-1136
ese	-1137
ten	-1138
▁How	-1139
▁vide	-1140
▁30	-1141
unch	-1142
▁mil	-1143
of	-1144
▁|	-1145
▁That	-1146
▁told	-1147
acks	-1148
esp	-1149
▁Col	-1150
ium	-1151
▁contin	-1152
▁invest	-1153
to	-1154
▁Fl	-1155
▁business	-1156
▁small	-1157
▁unt	-1158
ird	-1159
alf	-1160
ead	-1161
▁school	-1162
▁another	-1163
▁information	-1164
ided	-1165
ract	-1166
▁z	-1167
by	-1168
▁different	-1169
AL	-1170
▁friend	-1171
▁group	-1172
outh	-1173
▁chang	-1174
enn	-1175
▁prom	-1176
▁opp	-1177
.1	-1178
▁beh	-1179
▁main	-1180
ruct	-1181
▁near	-1182
▁vis	-1183
ED	-1184
▁line	-1185
▁class	-1186
▁since	-1187
augh	-1188
ering	-1189
ley	-1190
▁ide	-1191
ior	-1192
▁14	-1193
▁local	-1194
▁Comm	-1195
▁called	-1196
ready	-1197
▁To	-1198
aim	-1199
let	-1200
▁ask	-1201
itter	-1202
▁order	-1203
▁+	-1204
▁case	-1205
aid	-1206
▁TH	-1207
▁always	-1208
▁American	-1209
IS	-1210
▁win	-1211
▁belie	-1212
▁eas	-1213
▁Trump	-1214
▁100	-1215
▁<	-1216
thers	-1217
▁book	-1218
ality	-1219
▁May	-1220
ait	-1221
atic	-1222
▁must	-1223
ony	-1224
▁mar	-1225
▁name	-1226
ases	-1227
▁16	-1228
ror	-1229
aster	-1230
▁four	-1231
▁Man	-1232
▁miss	-1233
▁sol	-1234
ests	-1235
▁var	-1236
ered	-1237
▁Co	-1238
▁money	-1239
atur	-1240
▁ever	-1241
▁prof	-1242
▁kill	-1243
▁Gr	-1244
▁Car	-1245
▁Chr	-1246
▁didn	-1247
ope	-1248
▁prev	-1249
ister	-1250
af	-1251
▁move	-1252
side	-1253
▁already	-1254
uro	-1255
▁once	-1256
--------	-1257
▁Tw	-1258
iqu	-1259
ler	-1260
ration	-1261
ertain	-1262
▁number	-1263
▁cost	-1264
irl	-1265
▁feel	-1266
acy	-1267
▁One	-1268
▁Not	-1269
idd	-1270
▁change	-1271
ery	-1272
IT	-1273
ified	-1274
▁import	-1275
▁incre	-1276
ands	-1277
ailable	-1278
ending	-1279
▁men	-1280
12	-1281
....	-1282
ama	-1283
elf	-1284
ids	-1285
ology	-1286
iven	-1287
▁Su	-1288
▁lot	-1289
eng	-1290
yn	-1291
▁pos	-1292
gin	-1293
▁Can	-1294
▁record	-1295
AS	-1296
▁ann	-1297
utes	-1298
eb	-1299
▁partic	-1300
▁least	-1301
▁non	-1302
▁current	-1303
▁What	-1304
▁watch	-1305
▁Am	-1306
Th	-1307
▁give	-1308
▁che	-1309
▁13	-1310
ides	-1311
ploy	-1312
▁She	-1313
▁health	-1314
▁...	-1315
ware	-1316
▁suc	-1317
▁water	-1318
aring	-1319
▁Im	-1320
▁Pr	-1321
ows	-1322
▁http	-1323
ource	-1324
▁return	-1325
ional	-1326
urity	-1327
▁At	-1328
ained	-1329
for	-1330
arn	-1331
▁job	-1332
port	-1333
▁plan	-1334
▁million	-1335
▁sure	-1336
▁past	-1337
▁dri	-1338
▁making	-1339
.0	-1340
▁getting	-1341
▁fac	-1342
▁John	-1343
▁17	-1344
bo	-1345
▁control	-1346
▁until	-1347
ape	-1348
▁night	-1349
▁working	-1350
▁oper	-1351
▁Mc	-1352
ising	-1353
201	-1354
▁produ	-1355
▁rece	-1356
ene	-1357
▁tell	-1358
▁story	-1359
▁fore	-1360
.,	-1361
▁const	-1362
▁intern	-1363
stand	-1364
▁design	-1365
most	-1366
▁When	-1367
▁sit	-1368
▁love	-1369
▁media	-1370
11	-1371
ring	-1372
▁later	-1373
ones	-1374
ians	-1375
ison	-1376
▁Ne	-1377
▁short	-1378
pro	-1379
▁cover	-1380
▁came	-1381
▁199	-1382
used	-1383
arm	-1384
▁pop	-1385
.5	-1386
▁hold	-1387
▁kind	-1388
▁times	-1389
ai	-1390
▁Sy	-1391
raw	-1392
lection	-1393
ories	-1394
▁interest	-1395
▁bas	-1396
▁ago	-1397
▁view	-1398
▁within	-1399
ball	-1400
ajor	-1401
▁based	-1402
▁news	-1403
IC	-1404
▁vers	-1405
▁country	-1406
▁organ	-1407
▁process	-1408
▁consider	-1409
▁pat	-1410
ails	-1411
ney	-1412
▁early	-1413
▁video	-1414
▁having	-1415
**	-1416
▁bad	-1417
bl	-1418
▁women	-1419
▁sing	-1420
▁social	-1421
▁50	-1422
dit	-1423
earch	-1424
my	-1425
ury	-1426
▁meet	-1427
rew	-1428
▁25	-1429
▁along	-1430
▁away	-1431
son	-1432
▁available	-1433
▁Bro	-1434
icy	-1435
▁thing	-1436
raft	-1437
▁En	-1438
▁equ	-1439
iam	-1440
▁er	-1441
▁clear	-1442
conom	-1443
une	-1444
▁aff	-1445
▁24	-1446
▁doing	-1447
ization	-1448
▁air	-1449
▁red	-1450
▁{	-1451
aign	-1452
▁perform	-1453
▁Don	-1454
▁With	-1455
▁large	-1456
▁Wor	-1457
▁Sch	-1458
OU	-1459
▁done	-1460
▁including	-1461
▁family	-1462
▁Cent	-1463
25	-1464
▁low	-1465
▁Dr	-1466
ences	-1467
uthor	-1468
▁2016	-1469
ured	-1470
▁dev	-1471
▁techn	-1472
load	-1473
▁hist	-1474
▁event	-1475
▁doesn	-1476
ended	-1477
ocr	-1478
▁eng	-1479
▁appro	-1480
▁actually	-1481
▁ant	-1482
ials	-1483
go	-1484
▁@	-1485
19	-1486
reet	-1487
ored	-1488
▁won	-1489
ustom	-1490
____	-1491
▁press	-1492
▁deal	-1493
▁games	-1494
▁Mr	-1495
▁pot	-1496
eral	-1497
ING	-1498
▁bit	-1499
ording	-1500
roll	-1501
▁Gu	-1502
por	-1503
▁side	-1504
▁>	-1505
▁took	-1506
▁members	-1507
oo	-1508
▁project	-1509
ries	-1510
!!	-1511
▁charac	-1512
▁prob	-1513
ived	-1514
▁lim	-1515
▁political	-1516
ether	-1517
▁grow	-1518
▁enough	-1519
▁rese	-1520
▁Qu	-1521
▁happen	-1522
inc	-1523
leg	-1524
use	-1525
▁hours	-1526
OT	-1527
icle	-1528
RE	-1529
▁Te	-1530
▁mean	-1531
▁x	-1532
▁Pres	-1533
▁est	-1534
ined	-1535
▁half	-1536
▁others	-1537
ourn	-1538
▁why	-1539
▁service	-1540
▁black	-1541
▁cut	-1542
▁Me	-1543
▁went	-1544
▁children	-1545
book	-1546
▁food	-1547
▁writ	-1548
▁season	-1549
▁human	-1550
▁mult	-1551
▁fund	-1552
▁young	-1553
▁saf	-1554
▁often	-1555
▁word	-1556
▁tal	-1557
▁My	-1558
aper	-1559
▁looking	-1560
▁cho	-1561
▁Min	-1562
aken	-1563
ops	-1564
▁activ	-1565
▁mess	-1566
eter	-1567
▁Eng	-1568
▁sn	-1569
▁elect	-1570
urs	-1571
▁manag	-1572
iber	-1573
vert	-1574
ule	-1575
▁sever	-1576
▁conc	-1577
▁Do	-1578
▁bar	-1579
ging	-1580
put	-1581
back	-1582
ective	-1583
ators	-1584
ogr	-1585
AC	-1586
▁upd	-1587
pped	-1588
uture	-1589
iversity	-1590
▁light	-1591
arget	-1592
iously	-1593
lement	-1594
".	-1595
▁campaign	-1596
▁claim	-1597
▁Sec	-1598
▁fail	-1599
▁yet	-1600
▁Res	-1601
ept	-1602
▁check	-1603
anks	-1604
▁possible	-1605
▁Pol	-1606
▁company	-1607
work	-1608
▁course	-1609
▁major	-1610
",	-1611
▁due	-1612
▁community	-1613
▁Christ	-1614
▁months	-1615
▁five	-1616
▁sex	-1617
ission	-1618
▁live	-1619
▁complete	-1620
OM	-1621
▁Cont	-1622
▁produc	-1623
▁break	-1624
▁occ	-1625
▁try	-1626
▁makes	-1627
oon	-1628
ults	-1629
▁police	-1630
ument	-1631
▁priv	-1632
▁seen	-1633
▁sal	-1634
▁special	-1635
AM	-1636
▁sent	-1637
ability	-1638
ald	-1639
play	-1640
60	-1641
▁ben	-1642
St	-1643
▁body	-1644
40	-1645
▁face	-1646
▁across	-1647
▁State	-1648
par	-1649
iol	-1650
ober	-1651
▁App	-1652
itive	-1653
▁appear	-1654
▁important	-1655
▁join	-1656
▁fav	-1657
▁orig	-1658
aces	-1659
▁Per	-1660
ung	-1661
▁given	-1662
ST	-1663
ster	-1664
▁quick	-1665
▁Post	-1666
ips	-1667
▁Dec	-1668
▁Em	-1669
15	-1670
▁research	-1671
▁former	-1672
▁econom	-1673
▁certain	-1674
gress	-1675
▁invol	-1676
▁land	-1677
ully	-1678
.)	-1679
▁become	-1680
ential	-1681
▁coun	-1682
ample	-1683
▁ve	-1684
▁mor	-1685
▁almost	-1686
not	-1687
▁desc	-1688
▁sum	-1689
▁Har	-1690
▁phot	-1691
▁Ab	-1692
year	-1693
▁able	-1694
▁Ob	-1695
ances	-1696
▁deb	-1697
80	-1698
iron	-1699
▁means	-1700
▁Just	-1701
▁Cal	-1702
ault	-1703
▁self	-1704
urther	-1705
":	-1706
ift	-1707
▁Red	-1708
▁question	-1709
oid	-1710
oke	-1711
ensive	-1712
comm	-1713
▁Ke	-1714
▁Dem	-1715
uly	-1716
▁comes	-1717
▁players	-1718
▁points	-1719
);	-1720
▁percent	-1721
ination	-1722
▁following	-1723
▁fre	-1724
▁2015	-1725
▁Euro	-1726
▁sugg	-1727
oci	-1728
ference	-1729
▁mus	-1730
esc	-1731
▁thought	-1732
ither	-1733
▁tax	-1734
tr	-1735
LE	-1736
irc	-1737
▁conn	-1738
▁present	-1739
ges	-1740
▁War	-1741
amed	-1742
▁star	-1743
sy	-1744
▁aut	-1745
▁coming	-1746
▁white	-1747
ulation	-1748
▁trying	-1749
itional	-1750
irt	-1751
▁fire	-1752
ivid	-1753
▁Pre	-1754
▁access	-1755
▁North	-1756
▁problem	-1757
▁talk	-1758
head	-1759
ills	-1760
▁today	-1761
▁started	-1762
ued	-1763
▁mag	-1764
▁wind	-1765
ck	-1766
▁city	-1767
▁success	-1768
▁crit	-1769
▁minutes	-1770
▁front	-1771
de	-1772
▁above	-1773
▁cou	-1774
ming	-1775
▁issues	-1776
lev	-1777
▁known	-1778
▁pick	-1779
▁2014	-1780
▁fight	-1781
▁online	-1782
ilar	-1783
▁mom	-1784
ague	-1785
▁2017	-1786
▁York	-1787
▁super	-1788
iec	-1789
isc	-1790
▁creat	-1791
▁40	-1792
▁Russ	-1793
▁Ste	-1794
▁ca	-1795
▁doc	-1796
▁rather	-1797
sw	-1798
▁Pe	-1799
▁close	-1800
▁issue	-1801
▁probably	-1802
ole	-1803
▁future	-1804
▁among	-1805
▁opt	-1806
amer	-1807
▁attack	-1808
off	-1809
▁Inst	-1810
ilt	-1811
▁prop	-1812
artment	-1813
We	-1814
ashing	-1815
▁key	-1816
▁lo	-1817
fl	-1818
▁field	-1819
umb	-1820
ades	-1821
▁United	-1822
▁foot	-1823
▁Bar	-1824
▁After	-1825
ecut	-1826
▁Med	-1827
▁dou	-1828
▁ra	-1829
▁mind	-1830
uge	-1831
▁ste	-1832
▁house	-1833
idence	-1834
▁custom	-1835
.2	-1836
▁Sm	-1837
ript	-1838
▁ey	-1839
▁stop	-1840
tty	-1841
itor	-1842
▁taking	-1843
dd	-1844
▁tem	-1845
ief	-1846
ograph	-1847
▁employ	-1848
ortun	-1849
▁address	-1850
▁milit	-1851
▁target	-1852
ask	-1853
▁pract	-1854
▁fall	-1855
14	-1856
isk	-1857
▁understand	-1858
▁Part	-1859
▁}	-1860
▁net	-1861
▁room	-1862
ana	-1863
▁added	-1864
▁la	-1865
▁vot	-1866
gs	-1867
LL	-1868
▁wait	-1869
▁mass	-1870
▁running	-1871
▁experience	-1872
▁Will	-1873
▁needs	-1874
▁party	-1875
▁security	-1876
▁America	-1877
▁Gl	-1878
▁Jan	-1879
▁tre	-1880
▁dam	-1881
▁market	-1882
lin	-1883
arent	-1884
▁national	-1885
▁anything	-1886
▁Off	-1887
ify	-1888
▁nothing	-1889
====	-1890
▁President	-1891
▁bring	-1892
▁log	-1893
itting	-1894
wards	-1895
▁single	-1896
▁Ass	-1897
▁repl	-1898
▁works	-1899
▁code	-1900
ET	-1901
aced	-1902
▁enc	-1903
imate	-1904
▁pack	-1905
▁below	-1906
ules	-1907
attle	-1908
▁tot	-1909
mb	-1910
13	-1911
ude	-1912
▁several	-1913
▁girl	-1914
▁2013	-1915
reg	-1916
▁Europe	-1917
16	-1918
▁Now	-1919
yle	-1920
ouch	-1921
▁hit	-1922
▁action	-1923
▁hy	-1924
▁page	-1925
ply	-1926
ID	-1927
▁World	-1928
unk	-1929
▁pain	-1930
▁asked	-1931
▁six	-1932
▁sound	-1933
▁Intern	-1934
▁lab	-1935
▁comb	-1936
jects	-1937
iter	-1938
▁host	-1939
▁House	-1940
▁Dep	-1941
org	-1942
iff	-1943
▁South	-1944
aut	-1945
▁true	-1946
▁everyone	-1947
▁space	-1948
▁Ge	-1949
▁toget	-1950
▁late	-1951
In	-1952
ww	-1953
ION	-1954
▁together	-1955
-2	-1956
▁site	-1957
eth	-1958
iting	-1959
ources	-1960
▁23	-1961
▁Sw	-1962
iety	-1963
▁impro	-1964
usp	-1965
ero	-1966
▁version	-1967
▁By	-1968
mon	-1969
▁further	-1970
▁reported	-1971
elt	-1972
▁THE	-1973
ma	-1974
ett	-1975
ux	-1976
▁author	-1977
time	-1978
▁outside	-1979
▁Par	-1980
▁building	-1981
ites	-1982
17	-1983
▁pub	-1984
18	-1985
▁review	-1986
resent	-1987
.3	-1988
rest	-1989
aly	-1990
OS	-1991
▁attem	-1992
▁viol	-1993
▁More	-1994
▁pri	-1995
▁value	-1996
▁El	-1997
▁president	-1998
▁believe	-1999
▁Republic	-2000
vent	-2001
▁22	-2002
It	-2003
over	-2004
▁hom	-2005
▁needed	-2006
▁proper	-2007
▁2012	-2008
▁Rec	-2009
▁ap	-2010
▁Aust	-2011
▁strong	-2012
▁idea	-2013
▁match	-2014
▁instead	-2015
apt	-2016
▁Dav	-2017
▁National	-2018
▁IN	-2019
▁ident	-2020
▁taken	-2021
▁trad	-2022
▁fix	-2023
▁pretty	-2024
selves	-2025
▁Up	-2026
inking	-2027
▁Char	-2028
▁Some	-2029
www	-2030
▁Ed	-2031
▁hot	-2032
▁etc	-2033
ividual	-2034
▁policy	-2035
▁recent	-2036
▁seems	-2037
▁init	-2038
lex	-2039
▁step	-2040
aul	-2041
▁ground	-2042
aged	-2043
▁soon	-2044
45	-2045
▁Mon	-2046
▁suggest	-2047
aren	-2048
ederal	-2049
pping	-2050
asing	-2051
unt	-2052
▁Oct	-2053
▁playing	-2054
▁foc	-2055
▁whole	-2056
eks	-2057
ogle	-2058
▁compet	-2059
▁learn	-2060
▁cult	-2061
▁cop	-2062
ecially	-2063
▁discuss	-2064
▁death	-2065
▁pict	-2066
key	-2067
▁vol	-2068
▁buy	-2069
lege	-2070
AD	-2071
▁benef	-2072
▁isn	-2073
▁shows	-2074
▁series	-2075
iding	-2076
▁link	-2077
reme	-2078
.9	-2079
oint	-2080
▁history	-2081
▁rad	-2082
aily	-2083
▁Sen	-2084
ny	-2085
▁investig	-2086
▁squ	-2087
▁;	-2088
-0	-2089
▁block	-2090
▁ST	-2091
ural	-2092
rict	-2093
▁personal	-2094
uel	-2095
erman	-2096
▁esp	-2097
ners	-2098
EC	-2099
▁https	-2100
▁port	-2101
iday	-2102
▁compl	-2103
itted	-2104
▁stri	-2105
▁dead	-2106
▁saying	-2107
oor	-2108
▁begin	-2109
▁pull	-2110
▁phys	-2111
oph	-2112
▁Canad	-2113
▁stuff	-2114
omb	-2115
▁someone	-2116
▁21	-2117
▁behind	-2118
viron	-2119
uk	-2120
▁gets	-2121
ental	-2122
yr	-2123
▁via	-2124
ires	-2125
▁City	-2126
ival	-2127
ze	-2128
hel	-2129
cle	-2130
▁reason	-2131
ibility	-2132
▁Sk	-2133
70	-2134
ivil	-2135
▁University	-2136
ender	-2137
ried	-2138
▁cal	-2139
lished	-2140
▁matter	-2141
?"	-2142
▁imm	-2143
▁everything	-2144
▁whether	-2145
Wh	-2146
cy	-2147
▁lost	-2148
erm	-2149
▁else	-2150
▁file	-2151
▁AN	-2152
ished	-2153
atures	-2154
▁friends	-2155
▁Af	-2156
ecess	-2157
ique	-2158
▁Aug	-2159
lim	-2160
ends	-2161
ams	-2162
▁specific	-2163
uation	-2164
▁Sept	-2165
▁cred	-2166
haps	-2167
▁provide	-2168
inks	-2169
▁piec	-2170
▁dest	-2171
▁reach	-2172
obal	-2173
▁area	-2174
▁tra	-2175
▁common	-2176
ray	-2177
▁likely	-2178
▁Cor	-2179
▁account	-2180
▁changes	-2181
olution	-2182
▁services	-2183
▁individual	-2184
iddle	-2185
▁sell	-2186
ribut	-2187
▁These	-2188
▁First	-2189
▁abs	-2190
▁anyone	-2191
▁Act	-2192
▁quite	-2193
ournal	-2194
▁type	-2195
▁result	-2196
▁announ	-2197
▁Int	-2198
▁Ag	-2199
val	-2200
lt	-2201
▁mot	-2202
▁simply	-2203
OP	-2204
▁fig	-2205
ume	-2206
now	-2207
ety	-2208
▁financ	-2209
ients	-2210
▁development	-2211
▁saw	-2212
ham	-2213
75	-2214
add	-2215
▁according	-2216
▁News	-2217
osing	-2218
angu	-2219
cer	-2220
▁install	-2221
▁search	-2222
▁character	-2223
irm	-2224
▁Mus	-2225
.4	-2226
na	-2227
str	-2228
▁stay	-2229
▁threat	-2230
aker	-2231
▁treat	-2232
▁tit	-2233
▁Face	-2234
▁entire	-2235
▁High	-2236
▁Cr	-2237
▁dom	-2238
▁susp	-2239
▁military	-2240
▁Bo	-2241
istic	-2242
▁share	-2243
▁Count	-2244
duct	-2245
▁Mich	-2246
rect	-2247
ening	-2248
▁Apr	-2249
ches	-2250
▁similar	-2251
▁round	-2252
▁Black	-2253
ateg	-2254
rote	-2255
ser	-2256
▁typ	-2257
aving	-2258
▁leaders	-2259
▁Add	-2260
▁create	-2261
like	-2262
▁recently	-2263
ilities	-2264
▁deep	-2265
▁vict	-2266
▁wanted	-2267
ification	-2268
▁office	-2269
▁particular	-2270
▁aud	-2271
▁Pat	-2272
▁ball	-2273
ises	-2274
▁base	-2275
▁box	-2276
▁profess	-2277
▁RE	-2278
▁Brit	-2279
▁West	-2280
▁kids	-2281
▁neg	-2282
zz	-2283
▁arg	-2284
▁legal	-2285
▁webs	-2286
▁favor	-2287
▁aw	-2288
▁?	-2289
▁takes	-2290
▁wrong	-2291
▁students	-2292
▁rele	-2293
▁problems	-2294
▁content	-2295
▁White	-2296
▁Obama	-2297
▁rights	-2298
▁Democr	-2299
OL	-2300
AP	-2301
apan	-2302
▁longer	-2303
medi	-2304
osp	-2305
izing	-2306
itions	-2307
▁Ser	-2308
▁hope	-2309
oved	-2310
▁either	-2311
▁ill	-2312
eed	-2313
▁groups	-2314
icks	-2315
resh	-2316
nes	-2317
▁While	-2318
ili	-2319
▁store	-2320
▁ep	-2321
64	-2322
▁God	-2323
ube	-2324
▁item	-2325
ino	-2326
▁rev	-2327
ought	-2328
▁ur	-2329
▁text	-2330
iple	-2331
gest	-2332
▁exist	-2333
22	-2334
fully	-2335
▁indust	-2336
▁example	-2337
▁source	-2338
▁dro	-2339
▁clean	-2340
rought	-2341
lier	-2342
vironment	-2343
▁gen	-2344
OW	-2345
▁Here	-2346
▁Play	-2347
▁describ	-2348
▁anim	-2349
▁weeks	-2350
yl	-2351
▁required	-2352
▁general	-2353
▁shot	-2354
▁dig	-2355
▁Dis	-2356
▁norm	-2357
▁Read	-2358
ij	-2359
▁States	-2360
▁goes	-2361
▁respons	-2362
▁court	-2363
▁sense	-2364
icro	-2365
▁staff	-2366
▁card	-2367
▁upon	-2368
oud	-2369
▁Comp	-2370
bor	-2371
▁circ	-2372
▁anti	-2373
▁sold	-2374
▁Sl	-2375
▁wrote	-2376
rel	-2377
▁especially	-2378
.'	-2379
fect	-2380
▁Twitter	-2381
▁worth	-2382
▁Op	-2383
▁tool	-2384
▁198	-2385
▁inside	-2386
iod	-2387
▁roll	-2388
▁March	-2389
ashington	-2390
▁position	-2391
vil	-2392
▁Mark	-2393
su	-2394
▁final	-2395
action	-2396
▁forward	-2397
▁maybe	-2398
icult	-2399
verage	-2400
eds	-2401
net	-2402
▁IS	-2403
▁China	-2404
▁leave	-2405
▁easy	-2406
▁third	-2407
▁results	-2408
▁chall	-2409
▁Of	-2410
ees	-2411
▁boy	-2412
▁push	-2413
▁ce	-2414
minist	-2415
▁Ac	-2416
▁nice	-2417
▁Reg	-2418
▁include	-2419
1,	-2420
▁offer	-2421
ables	-2422
▁Your	-2423
▁training	-2424
US	-2425
set	-2426
uses	-2427
▁looks	-2428
atory	-2429
joy	-2430
eal	-2431
▁compan	-2432
▁concern	-2433
▁meas	-2434
alt	-2435
ned	-2436
▁comment	-2437
light	-2438
35	-2439
):	-2440
▁ener	-2441
▁Serv	-2442
▁cross	-2443
▁educ	-2444
▁Clin	-2445
▁fast	-2446
▁hear	-2447
ael	-2448
▁Facebook	-2449
32	-2450
▁Washington	-2451
▁original	-2452
▁mid	-2453
▁applic	-2454
▁release	-2455
▁questions	-2456
▁accept	-2457
▁]	-2458
▁hor	-2459
mm	-2460
▁email	-2461
▁living	-2462
down	-2463
▁comput	-2464
▁coll	-2465
▁shoot	-2466
▁28	-2467
BC	-2468
itten	-2469
▁dru	-2470
▁conv	-2471
▁cause	-2472
ground	-2473
aur	-2474
▁mention	-2475
mit	-2476
▁mis	-2477
wor	-2478
ogn	-2479
iles	-2480
▁music	-2481
▁mater	-2482
▁lat	-2483
▁60	-2484
▁gun	-2485
uary	-2486
▁TV	-2487
▁launch	-2488
▁represent	-2489
▁diff	-2490
▁private	-2491
erc	-2492
oto	-2493
▁AM	-2494
▁please	-2495
▁infl	-2496
▁answ	-2497
anger	-2498
ari	-2499
▁Ir	-2500
▁track	-2501
▁themselves	-2502
▁attempt	-2503
atives	-2504
▁Bu	-2505
▁road	-2506
▁Japan	-2507
▁quality	-2508
▁gave	-2509
▁26	-2510
▁Feb	-2511
illed	-2512
face	-2513
UT	-2514
▁Val	-2515
▁require	-2516
ened	-2517
▁June	-2518
board	-2519
▁cond	-2520
▁interview	-2521
▁Star	-2522
aging	-2523
▁Ang	-2524
ellow	-2525
▁Google	-2526
▁potential	-2527
▁capt	-2528
atural	-2529
room	-2530
▁Super	-2531
avy	-2532
▁Park	-2533
ags	-2534
▁July	-2535
ruction	-2536
oring	-2537
▁cand	-2538
agon	-2539
▁load	-2540
▁stre	-2541
raz	-2542
▁Fin	-2543
▁turned	-2544
▁April	-2545
▁His	-2546
▁performance	-2547
oes	-2548
▁simple	-2549
mp	-2550
where	-2551
▁expect	-2552
clus	-2553
----------------	-2554
▁held	-2555
itiz	-2556
cast	-2557
▁soft	-2558
though	-2559
▁moment	-2560
Ch	-2561
▁meth	-2562
▁Sim	-2563
asc	-2564
24	-2565
ocks	-2566
▁couple	-2567
ken	-2568
▁built	-2569
29	-2570
▁(@	-2571
▁Bill	-2572
.6	-2573
▁screen	-2574
▁Free	-2575
200	-2576
▁From	-2577
IG	-2578
▁player	-2579
idge	-2580
urch	-2581
▁OF	-2582
▁Acc	-2583
▁higher	-2584
onse	-2585
▁approach	-2586
bed	-2587
▁September	-2588
▁states	-2589
bit	-2590
▁Day	-2591
▁mach	-2592
ressed	-2593
▁brought	-2594
▁However	-2595
▁size	-2596
▁wasn	-2597
arr	-2598
▁wond	-2599
aves	-2600
▁necess	-2601
iant	-2602
▁events	-2603
▁cy	-2604
OD	-2605
EL	-2606
▁29	-2607
▁risk	-2608
▁prim	-2609
▁involved	-2610
▁collect	-2611
pper	-2612
▁created	-2613
arter	-2614
▁reports	-2615
▁guys	-2616
▁purch	-2617
mber	-2618
▁hon	-2619
▁bott	-2620
▁function	-2621
▁Soc	-2622
ENT	-2623
▁pred	-2624
▁user	-2625
▁German	-2626
▁became	-2627
hem	-2628
cover	-2629
▁PR	-2630
▁27	-2631
▁pers	-2632
▁various	-2633
ibly	-2634
ha	-2635
come	-2636
▁provided	-2637
▁financial	-2638
ression	-2639
▁suff	-2640
▁product	-2641
▁drive	-2642
▁ut	-2643
pts	-2644
aries	-2645
IM	-2646
▁hop	-2647
▁began	-2648
▁bi	-2649
▁ban	-2650
▁sort	-2651
▁energy	-2652
▁worked	-2653
oul	-2654
▁paid	-2655
▁Sund	-2656
icles	-2657
.8	-2658
▁continue	-2659
▁lay	-2660
▁exc	-2661
▁paper	-2662
pre	-2663
▁Wind	-2664
▁engine	-2665
▁civil	-2666
▁words	-2667
▁played	-2668
▁effect	-2669
sych	-2670
▁Mag	-2671
▁safe	-2672
▁users	-2673
▁den	-2674
▁date	-2675
▁jud	-2676
▁led	-2677
oses	-2678
▁lives	-2679
▁age	-2680
tw	-2681
▁finally	-2682
ibr	-2683
▁Mod	-2684
▁talking	-2685
▁Trans	-2686
33	-2687
reed	-2688
▁extra	-2689
hood	-2690
▁thous	-2691
▁nearly	-2692
="	-2693
▁companies	-2694
▁refer	-2695
▁Street	-2696
▁Hill	-2697
▁officials	-2698
IL	-2699
▁Inter	-2700
▁Clinton	-2701
rael	-2702
▁Austral	-2703
▁calls	-2704
▁bud	-2705
▁fem	-2706
▁quickly	-2707
ension	-2708
▁Gener	-2709
▁Also	-2710
▁fair	-2711
ements	-2712
▁touch	-2713
uments	-2714
▁received	-2715
▁force	-2716
▁Over	-2717
▁immedi	-2718
▁poor	-2719
▁Mor	-2720
▁blood	-2721
▁emer	-2722
icated	-2723
lam	-2724
iny	-2725
▁inj	-2726
▁rate	-2727
▁Well	-2728
▁board	-2729
UR	-2730
▁Art	-2731
▁cell	-2732
▁guy	-2733
epend	-2734
▁insp	-2735
▁draw	-2736
▁reve	-2737
▁article	-2738
ears	-2739
▁federal	-2740
▁pan	-2741
▁message	-2742
28	-2743
▁Cle	-2744
▁Ear	-2745
▁di	-2746
body	-2747
▁Cour	-2748
▁phone	-2749
▁speed	-2750
▁model	-2751
iction	-2752
▁regular	-2753
ological	-2754
ovember	-2755
▁Cons	-2756
force	-2757
▁August	-2758
▁Good	-2759
▁Calif	-2760
anced	-2761
▁Please	-2762
aught	-2763
▁2018	-2764
▁cool	-2765
ificant	-2766
▁Paul	-2767
▁total	-2768
▁1,	-2769
▁sett	-2770
▁prior	-2771
▁evidence	-2772
▁Every	-2773
27	-2774
▁slow	-2775
AY	-2776
▁period	-2777
▁Center	-2778
ype	-2779
▁Pal	-2780
CH	-2781
rown	-2782
▁rac	-2783
▁giving	-2784
box	-2785
▁San	-2786
urt	-2787
▁note	-2788
▁meeting	-2789
▁\	-2790
▁ten	-2791
▁particip	-2792
▁starting	-2793
▁sen	-2794
▁lower	-2795
▁hands	-2796
akers	-2797
lying	-2798
▁intro	-2799
urd	-2800
▁ver	-2801
aming	-2802
▁surpr	-2803
▁sens	-2804
▁relations	-2805
/201	-2806
▁prep	-2807
▁Department	-2808
▁morning	-2809
ara	-2810
▁sil	-2811
▁yes	-2812
48	-2813
▁coach	-2814
▁Out	-2815
▁Even	-2816
▁official	-2817
▁huge	-2818
##	-2819
▁div	-2820
rain	-2821
▁member	-2822
90	-2823
▁Get	-2824
ales	-2825
▁focus	-2826
IP	-2827
▁billion	-2828
ession	-2829
▁Friday	-2830
▁English	-2831
▁desp	-2832
▁role	-2833
▁ready	-2834
▁expected	-2835
estern	-2836
▁himself	-2837
▁remember	-2838
▁David	-2839
▁October	-2840
based	-2841
▁November	-2842
▁blog	-2843
▁included	-2844
▁environment	-2845
▁consum	-2846
▁reading	-2847
▁langu	-2848
▁Our	-2849
▁opportun	-2850
amb	-2851
▁website	-2852
▁II	-2853
▁international	-2854
▁Mo	-2855
:5	-2856
▁sle	-2857
▁Bre	-2858
▁ways	-2859
uf	-2860
▁price	-2861
▁fans	-2862
▁foreign	-2863
▁walk	-2864
▁PM	-2865
▁send	-2866
▁rout	-2867
alls	-2868
▁doll	-2869
▁January	-2870
rian	-2871
▁cannot	-2872
▁difficult	-2873
▁Let	-2874
!"	-2875
thern	-2876
▁enjoy	-2877
iring	-2878
▁select	-2879
▁mob	-2880
▁King	-2881
▁Sub	-2882
wood	-2883
iers	-2884
23	-2885
▁Us	-2886
VE	-2887
▁%	-2888
oice	-2889
▁standard	-2890
▁ign	-2891
anch	-2892
▁travel	-2893
.7	-2894
▁2010	-2895
▁Big	-2896
no	-2897
▁AP	-2898
cil	-2899
▁Gold	-2900
▁town	-2901
________	-2902
▁heart	-2903
etic	-2904
▁Cong	-2905
order	-2906
▁heard	-2907
▁$1	-2908
▁regard	-2909
▁spot	-2910
▁behav	-2911
▁Je	-2912
osition	-2913
cell	-2914
ously	-2915
▁document	-2916
▁Israel	-2917
astic	-2918
▁attention	-2919
men	-2920
oom	-2921
▁Dan	-2922
new	-2923
▁90	-2924
▁save	-2925
imin	-2926
▁writing	-2927
▁Californ	-2928
▁club	-2929
▁correct	-2930
▁relig	-2931
airs	-2932
▁trade	-2933
▁write	-2934
osh	-2935
▁separ	-2936
aled	-2937
idents	-2938
▁arch	-2939
yond	-2940
duced	-2941
ledge	-2942
▁rules	-2943
▁numbers	-2944
▁latest	-2945
▁recomm	-2946
▁sometimes	-2947
▁broad	-2948
irth	-2949
inter	-2950
▁Ter	-2951
▁Satur	-2952
alys	-2953
▁method	-2954
▁Then	-2955
▁comments	-2956
undred	-2957
▁parts	-2958
▁bill	-2959
ively	-2960
▁feature	-2961
▁Afric	-2962
alse	-2963
▁decision	-2964
▁Green	-2965
just	-2966
▁named	-2967
▁perhaps	-2968
▁Sunday	-2969
ae	-2970
▁2011	-2971
▁tried	-2972
99	-2973
',	-2974
▁Mond	-2975
▁avoid	-2976
▁demand	-2977
▁Any	-2978
▁request	-2979
▁option	-2980
wise	-2981
▁mix	-2982
▁Kore	-2983
▁und	-2984
▁allowed	-2985
▁80	-2986
▁James	-2987
▁Stud	-2988
▁completely	-2989
▁study	-2990
▁associ	-2991
▁significant	-2992
itution	-2993
aby	-2994
▁La	-2995
ittee	-2996
ication	-2997
▁effort	-2998
▁feed	-2999
acts	-3000
▁oil	-3001
▁spent	-3002
▁nation	-3003
▁December	-3004
ares	-3005
▁neigh	-3006
▁School	-3007
▁Rem	-3008
rec	-3009
▁Yes	-3010
▁Def	-3011
mar	-3012
▁Oh	-3013
EM	-3014
▁stra	-3015
▁visit	-3016
ocked	-3017
riving	-3018
36	-3019
▁See	-3020
▁lack	-3021
▁released	-3022
▁scr	-3023
▁swe	-3024
rench	-3025
ounts	-3026
▁summer	-3027
▁files	-3028
▁counter	-3029
ishing	-3030
▁Why	-3031
urg	-3032
▁exact	-3033
▁earlier	-3034
▁contact	-3035
▁ens	-3036
ander	-3037
▁loss	-3038
:00	-3039
arents	-3040
▁California	-3041
▁path	-3042
igr	-3043
asons	-3044
▁cases	-3045
isl	-3046
imum	-3047
roup	-3048
▁becom	-3049
▁reb	-3050
ipe	-3051
▁County	-3052
▁piece	-3053
field	-3054
▁execut	-3055
▁Rich	-3056
gu	-3057
▁carry	-3058
▁response	-3059
▁popular	-3060
▁Time	-3061
▁terror	-3062
▁esc	-3063
▁Wed	-3064
▁•	-3065
▁chance	-3066
pm	-3067
▁countries	-3068
ores	-3069
▁fine	-3070
anned	-3071
▁range	-3072
▁deg	-3073
▁teams	-3074
▁woman	-3075
▁Lab	-3076
▁defin	-3077
▁Saturday	-3078
ament	-3079
▁economic	-3080
orge	-3081
▁medical	-3082
▁capital	-3083
▁perfect	-3084
▁daily	-3085
ription	-3086
ipped	-3087
hold	-3088
ellig	-3089
▁cat	-3090
▁goal	-3091
▁Ant	-3092
▁subject	-3093
34	-3094
ength	-3095
▁stream	-3096
rupt	-3097
ples	-3098
▁director	-3099
▁assist	-3100
▁Michael	-3101
▁TO	-3102
▁Rob	-3103
▁features	-3104
▁multiple	-3105
26	-3106
ey	-3107
ondon	-3108
▁View	-3109
▁Tom	-3110
▁kick	-3111
ext	-3112
▁pen	-3113
▁administ	-3114
▁prevent	-3115
▁liter	-3116
▁web	-3117
▁Her	-3118
atform	-3119
▁Last	-3120
▁weap	-3121
▁estab	-3122
AG	-3123
▁vs	-3124
38	-3125
:0	-3126
▁protect	-3127
▁effective	-3128
▁sat	-3129
PS	-3130
chie	-3131
lebr	-3132
ructure	-3133
▁max	-3134
▁drop	-3135
ky	-3136
ounds	-3137
▁East	-3138
▁mat	-3139
▁status	-3140
▁safety	-3141
▁table	-3142
▁interesting	-3143
▁stories	-3144
▁imag	-3145
▁lines	-3146
▁shit	-3147
▁progress	-3148
arian	-3149
coin	-3150
39	-3151
tain	-3152
▁global	-3153
▁green	-3154
ipping	-3155
IA	-3156
▁candid	-3157
▁changed	-3158
▁Tex	-3159
andom	-3160
enge	-3161
▁improve	-3162
▁obv	-3163
▁surv	-3164
utions	-3165
▁amount	-3166
comp	-3167
▁secret	-3168
▁Phil	-3169
aks	-3170
vis	-3171
▁systems	-3172
que	-3173
▁cry	-3174
▁contr	-3175
▁details	-3176
▁workers	-3177
▁feet	-3178
▁Att	-3179
▁ones	-3180
▁35	-3181
▁Spec	-3182
ords	-3183
▁Monday	-3184
▁center	-3185
▁wide	-3186
▁race	-3187
▁veh	-3188
▁decl	-3189
ivity	-3190
▁decided	-3191
▁happened	-3192
oper	-3193
olute	-3194
▁whose	-3195
▁situation	-3196
using	-3197
omen	-3198
▁Law	-3199
fort	-3200
37	-3201
mark	-3202
▁ang	-3203
ancy	-3204
▁previous	-3205
▁PC	-3206
****	-3207
OC	-3208
oly	-3209
▁knew	-3210
▁Great	-3211
▁extreme	-3212
▁moving	-3213
▁dark	-3214
▁Are	-3215
nown	-3216
▁Sun	-3217
owers	-3218
▁areas	-3219
▁throw	-3220
▁projects	-3221
▁disp	-3222
▁har	-3223
inese	-3224
oe	-3225
▁tick	-3226
▁citiz	-3227
▁Des	-3228
▁Open	-3229
▁respond	-3230
▁wants	-3231
▁double	-3232
▁increase	-3233
▁bank	-3234
▁middle	-3235
▁autom	-3236
▁Sand	-3237
▁ON	-3238
▁deliver	-3239
vey	-3240
aint	-3241
▁download	-3242
▁burn	-3243
▁arm	-3244
ector	-3245
inger	-3246
iation	-3247
▁contract	-3248
▁lif	-3249
uesday	-3250
▁Direct	-3251
enced	-3252
▁197	-3253
▁Rel	-3254
▁hundred	-3255
hib	-3256
▁Coun	-3257
▁camer	-3258
olf	-3259
ston	-3260
▁actual	-3261
ban	-3262
itation	-3263
▁itself	-3264
▁recogn	-3265
▁except	-3266
▁damage	-3267
▁Ben	-3268
▁tour	-3269
right	-3270
▁college	-3271
▁directly	-3272
▁Net	-3273
▁teach	-3274
▁train	-3275
▁London	-3276
▁Inc	-3277
▁display	-3278
▁limited	-3279
▁purp	-3280
oman	-3281
▁update	-3282
VER	-3283
atever	-3284
▁written	-3285
lay	-3286
ims	-3287
more	-3288
egr	-3289
roy	-3290
▁normal	-3291
encies	-3292
▁movement	-3293
▁convers	-3294
iance	-3295
▁average	-3296
echan	-3297
▁poll	-3298
▁ple	-3299
▁killed	-3300
▁journal	-3301
ruary	-3302
ico	-3303
adem	-3304
▁Met	-3305
▁plans	-3306
▁straight	-3307
IR	-3308
▁gives	-3309
▁!	-3310
▁technology	-3311
ago	-3312
ager	-3313
This	-3314
eg	-3315
▁Tra	-3316
▁ir	-3317
▁European	-3318
▁Prof	-3319
udd	-3320
▁trust	-3321
ml	-3322
▁Mart	-3323
itness	-3324
▁id	-3325
▁cast	-3326
▁inn	-3327
▁exam	-3328
▁felt	-3329
▁beaut	-3330
ford	-3331
▁practice	-3332
▁il	-3333
▁color	-3334
▁brand	-3335
▁currently	-3336
▁tim	-3337
annel	-3338
arently	-3339
▁looked	-3340
▁Like	-3341
49	-3342
how	-3343
inary	-3344
▁Bel	-3345
▁Canada	-3346
▁Game	-3347
ris	-3348
▁despite	-3349
▁AC	-3350
▁natural	-3351
▁Rober	-3352
▁vote	-3353
▁sto	-3354
▁Court	-3355
vest	-3356
▁favorite	-3357
65	-3358
ceed	-3359
izz	-3360
fr	-3361
▁Power	-3362
▁Russian	-3363
▁Supp	-3364
▁People	-3365
▁wal	-3366
odes	-3367
▁obs	-3368
▁click	-3369
well	-3370
aling	-3371
▁industry	-3372
▁options	-3373
▁production	-3374
▁Tuesday	-3375
▁Leg	-3376
asy	-3377
▁arriv	-3378
▁adm	-3379
ica	-3380
▁psych	-3381
▁twe	-3382
▁posted	-3383
▁Most	-3384
▁image	-3385
0000	-3386
aked	-3387
▁door	-3388
▁scient	-3389
▁Commun	-3390
erry	-3391
47	-3392
▁object	-3393
▁map	-3394
▁physical	-3395
▁Times	-3396
ady	-3397
oles	-3398
ditions	-3399
▁doub	-3400
aughter	-3401
▁products	-3402
▁Congress	-3403
▁ess	-3404
▁corpor	-3405
ht	-3406
ctor	-3407
▁happy	-3408
▁~	-3409
▁election	-3410
▁February	-3411
▁spread	-3412
ida	-3413
TS	-3414
alysis	-3415
▁unf	-3416
▁Exp	-3417
▁characters	-3418
▁International	-3419
▁bal	-3420
ev	-3421
ria	-3422
▁Americans	-3423
iment	-3424
▁parents	-3425
▁Mac	-3426
▁levels	-3427
▁liber	-3428
▁mill	-3429
▁William	-3430
here	-3431
▁Ev	-3432
▁British	-3433
▁Party	-3434
duction	-3435
▁weight	-3436
▁mother	-3437
▁lik	-3438
ns	-3439
▁failed	-3440
▁hous	-3441
▁implement	-3442
▁published	-3443
rugg	-3444
▁computer	-3445
▁film	-3446
▁SP	-3447
▁demon	-3448
▁language	-3449
▁repe	-3450
▁choice	-3451
▁seven	-3452
▁rock	-3453
ups	-3454
orters	-3455
berg	-3456
vertis	-3457
▁wouldn	-3458
▁Republican	-3459
","	-3460
▁1.	-3461
▁picture	-3462
ien	-3463
▁names	-3464
azing	-3465
▁promot	-3466
iable	-3467
ius	-3468
▁mode	-3469
▁Other	-3470
▁arrest	-3471
▁conditions	-3472
▁aren	-3473
▁rob	-3474
▁influ	-3475
acing	-3476
▁NE	-3477
▁Sam	-3478
▁experi	-3479
▁football	-3480
21	-3481
rey	-3482
▁eight	-3483
▁Spe	-3484
▁Sil	-3485
▁statement	-3486
gen	-3487
▁UN	-3488
▁Russia	-3489
▁necessary	-3490
FL	-3491
iders	-3492
▁fully	-3493
▁ran	-3494
▁Mil	-3495
rd	-3496
▁rule	-3497
▁immediately	-3498
▁uses	-3499
▁mount	-3500
▁som	-3501
68	-3502
okes	-3503
igned	-3504
▁wife	-3505
▁NOT	-3506
▁Del	-3507
enty	-3508
dom	-3509
ospital	-3510
▁usually	-3511
▁AND	-3512
▁Nor	-3513
▁thread	-3514
▁sched	-3515
▁connect	-3516
▁mer	-3517
▁Islam	-3518
▁Back	-3519
▁considered	-3520
▁ord	-3521
▁serious	-3522
▁fol	-3523
vin	-3524
change	-3525
▁ahead	-3526
ulations	-3527
▁Chinese	-3528
2,	-3529
ios	-3530
▁title	-3531
che	-3532
▁switch	-3533
▁Step	-3534
▁conserv	-3535
ville	-3536
▁Str	-3537
▁spl	-3538
▁eyes	-3539
▁Air	-3540
▁ability	-3541
icient	-3542
▁gold	-3543
▁band	-3544
▁couldn	-3545
▁_	-3546
rowd	-3547
IF	-3548
▁yourself	-3549
uty	-3550
gl	-3551
iled	-3552
▁grand	-3553
▁easily	-3554
▁achie	-3555
bing	-3556
BS	-3557
You	-3558
▁beyond	-3559
▁shut	-3560
========	-3561
itute	-3562
▁fear	-3563
▁gas	-3564
alled	-3565
▁prec	-3566
▁items	-3567
,'	-3568
▁Thurs	-3569
▁UK	-3570
▁Cur	-3571
ngth	-3572
▁wel	-3573
▁fan	-3574
▁network	-3575
▁seeing	-3576
ga	-3577
▁Tor	-3578
▁books	-3579
▁leader	-3580
▁efforts	-3581
▁Wednes	-3582
ki	-3583
▁Fire	-3584
isions	-3585
▁opening	-3586
▁ult	-3587
night	-3588
merc	-3589
ulated	-3590
▁Who	-3591
▁General	-3592
▁thinking	-3593
▁Windows	-3594
▁growing	-3595
▁Police	-3596
▁jobs	-3597
▁enter	-3598
▁//	-3599
▁celebr	-3600
illing	-3601
ums	-3602
▁however	-3603
aud	-3604
mail	-3605
▁70	-3606
▁Texas	-3607
ining	-3608
▁waiting	-3609
▁sexual	-3610
▁2009	-3611
▁street	-3612
iced	-3613
▁Down	-3614
▁Jew	-3615
arily	-3616
cont	-3617
'.	-3618
UN	-3619
▁pet	-3620
▁student	-3621
▁Tur	-3622
ecause	-3623
rief	-3624
▁smart	-3625
3,	-3626
▁Brown	-3627
▁catch	-3628
itz	-3629
ours	-3630
▁subst	-3631
▁additional	-3632
ications	-3633
orter	-3634
▁budget	-3635
67	-3636
500	-3637
▁Muslim	-3638
▁complex	-3639
▁hair	-3640
▁2008	-3641
▁movie	-3642
antly	-3643
see	-3644
mas	-3645
▁related	-3646
▁education	-3647
uman	-3648
44	-3649
▁SH	-3650
▁lic	-3651
▁deter	-3652
▁defense	-3653
":"	-3654
▁Govern	-3655
ih	-3656
▁followed	-3657
▁platform	-3658
inn	-3659
▁Port	-3660
▁Fe	-3661
sequ	-3662
urance	-3663
▁cook	-3664
rive	-3665
▁Hel	-3666
entially	-3667
▁wild	-3668
▁speech	-3669
▁Health	-3670
urder	-3671
▁song	-3672
▁jump	-3673
▁Many	-3674
iminal	-3675
ucks	-3676
▁thousands	-3677
olly	-3678
oh	-3679
ads	-3680
▁missing	-3681
▁Wednesday	-3682
▁leading	-3683
ota	-3684
▁virt	-3685
▁Jim	-3686
▁kept	-3687
▁term	-3688
▁Associ	-3689
▁**	-3690
▁section	-3691
▁relationship	-3692
▁traff	-3693
▁attacks	-3694
▁Cap	-3695
asts	-3696
ooth	-3697
▁battle	-3698
▁terms	-3699
ka	-3700
▁style	-3701
▁impact	-3702
duce	-3703
▁Mike	-3704
rem	-3705
▁Tod	-3706
▁Sur	-3707
▁McC	-3708
ctions	-3709
▁Thom	-3710
▁credit	-3711
ocol	-3712
▁highly	-3713
▁AT	-3714
▁Thursday	-3715
yp	-3716
▁places	-3717
▁miles	-3718
iful	-3719
()	-3720
Ph	-3721
▁myself	-3722
▁rap	-3723
do	-3724
▁Mal	-3725
ste	-3726
▁sun	-3727
▁legisl	-3728
▁charge	-3729
▁grad	-3730
▁alone	-3731
ufact	-3732
▁stick	-3733
yan	-3734
▁45	-3735
▁unique	-3736
▁Two	-3737
▁moved	-3738
▁Det	-3739
▁Indian	-3740
agr	-3741
▁emb	-3742
▁Thanks	-3743
▁ID	-3744
▁sales	-3745
▁costs	-3746
▁Che	-3747
▁forced	-3748
ado	-3749
▁£	-3750
ucle	-3751
▁AS	-3752
▁Top	-3753
erve	-3754
▁window	-3755
host	-3756
▁pic	-3757
▁spir	-3758
▁perm	-3759
eline	-3760
iling	-3761
▁stage	-3762
aven	-3763
▁son	-3764
▁illeg	-3765
hol	-3766
.00	-3767
▁wonder	-3768
▁fighting	-3769
icate	-3770
▁Pet	-3771
aste	-3772
house	-3773
▁fit	-3774
outs	-3775
▁pun	-3776
▁cold	-3777
▁material	-3778
▁appl	-3779
▁software	-3780
▁According	-3781
▁station	-3782
▁announced	-3783
▁scene	-3784
▁Sol	-3785
▁enem	-3786
▁Book	-3787
▁System	-3788
▁ge	-3789
icit	-3790
▁altern	-3791
▁Ham	-3792
anted	-3793
▁Alex	-3794
elligence	-3795
imal	-3796
▁described	-3797
ym	-3798
▁showing	-3799
zen	-3800
▁Mad	-3801
▁minor	-3802
ipment	-3803
ocking	-3804
▁absolute	-3805
uts	-3806
▁increasing	-3807
resp	-3808
▁disapp	-3809
▁career	-3810
▁culture	-3811
EO	-3812
eless	-3813
▁strugg	-3814
▁beat	-3815
▁birth	-3816
▁bur	-3817
ils	-3818
▁dog	-3819
▁Mem	-3820
▁knowledge	-3821
ailed	-3822
ouble	-3823
▁YOU	-3824
▁CH	-3825
▁independ	-3826
▁League	-3827
▁customers	-3828
▁USA	-3829
▁basic	-3830
▁dream	-3831
coming	-3832
▁occur	-3833
/0	-3834
▁Ber	-3835
BI	-3836
▁Mer	-3837
▁Bay	-3838
▁designed	-3839
▁answer	-3840
▁figure	-3841
▁thanks	-3842
ya	-3843
▁drug	-3844
▁plus	-3845
sey	-3846
▁Av	-3847
▁claims	-3848
TH	-3849
date	-3850
orrow	-3851
▁Smith	-3852
isode	-3853
▁effects	-3854
▁fa	-3855
▁fat	-3856
▁setting	-3857
▁actions	-3858
Tr	-3859
▁sleep	-3860
wide	-3861
imately	-3862
▁chief	-3863
▁helped	-3864
▁mechan	-3865
ocal	-3866
▁conduct	-3867
formation	-3868
▁Hall	-3869
TC	-3870
abled	-3871
▁frequ	-3872
▁stock	-3873
osure	-3874
▁prison	-3875
ading	-3876
▁forces	-3877
▁calling	-3878
▁knows	-3879
▁certainly	-3880
gar	-3881
▁George	-3882
▁spend	-3883
▁Fore	-3884
▁histor	-3885
▁contribut	-3886
▁Sal	-3887
▁discover	-3888
ifying	-3889
▁resources	-3890
▁Sum	-3891
▁Dist	-3892
▁integr	-3893
▁hang	-3894
▁broken	-3895
▁Franc	-3896
▁fresh	-3897
▁meaning	-3898
iot	-3899
roid	-3900
▁command	-3901
▁die	-3902
▁records	-3903
▁father	-3904
asion	-3905
▁minute	-3906
▁seconds	-3907
▁appears	-3908
▁confir	-3909
▁Angel	-3910
with	-3911
▁reality	-3912
▁letter	-3913
SP	-3914
▁prem	-3915
▁offered	-3916
▁alle	-3917
▁Camp	-3918
▁showed	-3919
▁clearly	-3920
bon	-3921
▁syn	-3922
▁Internet	-3923
list	-3924
acking	-3925
raq	-3926
▁vac	-3927
▁eye	-3928
▁Bet	-3929
lements	-3930
▁false	-3931
▁kid	-3932
▁luck	-3933
Sh	-3934
htt	-3935
ulate	-3936
▁encour	-3937
▁pressure	-3938
▁central	-3939
▁beginning	-3940
▁cards	-3941
▁Service	-3942
▁increased	-3943
forcement	-3944
▁server	-3945
▁Only	-3946
▁impl	-3947
illa	-3948
▁==	-3949
ingly	-3950
▁Tre	-3951
▁transl	-3952
known	-3953
▁Found	-3954
▁heavy	-3955
itude	-3956
esh	-3957
▁respect	-3958
▁growth	-3959
▁location	-3960
▁info	-3961
▁wall	-3962
▁caught	-3963
▁32	-3964
▁config	-3965
▁Lou	-3966
umn	-3967
!)	-3968
umber	-3969
▁gone	-3970
gers	-3971
▁guess	-3972
ias	-3973
ropri	-3974
usion	-3975
AA	-3976
ros	-3977
lo	-3978
▁shown	-3979
kin	-3980
▁Scott	-3981
▁Under	-3982
ERS	-3983
If	-3984
▁Flor	-3985
▁crowd	-3986
▁dat	-3987
top	-3988
▁length	-3989
▁activity	-3990
4,	-3991
▁prefer	-3992
▁uns	-3993
▁citizens	-3994
▁Donald	-3995
▁Que	-3996
▁French	-3997
▁leaving	-3998
▁programs	-3999
▁placed	-4000
apter	-4001
▁quarter	-4002
▁firm	-4003
▁expand	-4004
▁Rock	-4005
▁laws	-4006
CE	-4007
▁Public	-4008
▁towards	-4009
95	-4010
▁watching	-4011
ushing	-4012
▁gra	-4013
▁Prot	-4014
unes	-4015
▁Miss	-4016
▁bought	-4017
▁whatever	-4018
▁massive	-4019
▁Edit	-4020
▁particularly	-4021
iller	-4022
▁sem	-4023
▁Secret	-4024
▁Form	-4025
▁girls	-4026
ribution	-4027
▁violence	-4028
▁500	-4029
istan	-4030
▁Wall	-4031
▁onto	-4032
▁Team	-4033
▁controll	-4034
▁Tim	-4035
▁Ret	-4036
▁asking	-4037
▁lose	-4038
▁nor	-4039
▁values	-4040
▁Island	-4041
▁scen	-4042
erved	-4043
▁society	-4044
▁opportunity	-4045
▁runs	-4046
??	-4047
▁fuck	-4048
6,	-4049
▁Iraq	-4050
band	-4051
ache	-4052
DS	-4053
▁Web	-4054
ightly	-4055
▁agre	-4056
▁danger	-4057
▁consist	-4058
friend	-4059
▁tro	-4060
▁ded	-4061
▁apparently	-4062
izes	-4063
▁master	-4064
▁WH	-4065
ilies	-4066
▁background	-4067
▁closed	-4068
▁bed	-4069
▁Matt	-4070
▁pages	-4071
▁raised	-4072
▁brain	-4073
▁whe	-4074
▁aware	-4075
Sc	-4076
▁polic	-4077
mercial	-4078
▁management	-4079
▁2,	-4080
▁critic	-4081
▁graph	-4082
▁officers	-4083
▁murder	-4084
col	-4085
onym	-4086
▁hell	-4087
▁holding	-4088
▁benefits	-4089
anta	-4090
▁gar	-4091
▁initial	-4092
▁notes	-4093
▁supposed	-4094
98	-4095
▁Western	-4096
part	-4097
▁dise	-4098
LY	-4099
▁Aut	-4100
▁mist	-4101
▁sites	-4102
▁notice	-4103
TR	-4104
BA	-4105
▁Press	-4106
PU	-4107
cing	-4108
ucking	-4109
esome	-4110
itely	-4111
oms	-4112
iate	-4113
▁Photo	-4114
gn	-4115
▁alleged	-4116
ette	-4117
▁wish	-4118
▁machine	-4119
▁treatment	-4120
▁mission	-4121
▁Another	-4122
▁internet	-4123
▁bul	-4124
▁opin	-4125
▁Bit	-4126
uration	-4127
▁Show	-4128
uclear	-4129
-5	-4130
▁Chic	-4131
▁Er	-4132
name	-4133
under	-4134
▁includes	-4135
▁receive	-4136
ruit	-4137
▁der	-4138
▁transfer	-4139
rial	-4140
▁schools	-4141
▁solid	-4142
▁chec	-4143
▁property	-4144
▁Road	-4145
▁ice	-4146
▁pros	-4147
))	-4148
▁Class	-4149
▁India	-4150
▁ideas	-4151
▁employees	-4152
ta	-4153
ona	-4154
▁Since	-4155
▁mostly	-4156
awn	-4157
▁Bus	-4158
▁Techn	-4159
▁driving	-4160
▁positive	-4161
▁Use	-4162
inated	-4163
▁eventually	-4164
ici	-4165
▁End	-4166
icon	-4167
ls	-4168
eared	-4169
▁mentioned	-4170
▁resist	-4171
venue	-4172
▁male	-4173
▁Long	-4174
onents	-4175
igration	-4176
apped	-4177
▁31	-4178
igger	-4179
▁strength	-4180
▁AR	-4181
▁ship	-4182
▁champ	-4183
▁administration	-4184
▁photo	-4185
▁Wil	-4186
▁behavior	-4187
▁voice	-4188
win	-4189
▁default	-4190
▁Jack	-4191
▁Squ	-4192
▁skin	-4193
▁somew	-4194
idden	-4195
istry	-4196
▁device	-4197
Cl	-4198
ashed	-4199
▁critical	-4200
▁science	-4201
▁manager	-4202
▁Australia	-4203
abor	-4204
▁senior	-4205
▁Security	-4206
twitter	-4207
▁throughout	-4208
bre	-4209
▁wid	-4210
▁active	-4211
▁TR	-4212
▁random	-4213
▁testing	-4214
100	-4215
TER	-4216
▁00	-4217
▁Rad	-4218
▁unit	-4219
▁Council	-4220
reens	-4221
▁exactly	-4222
▁trip	-4223
▁choose	-4224
▁condition	-4225
▁Group	-4226
▁Earth	-4227
ribute	-4228
▁Mex	-4229
verse	-4230
▁2007	-4231
edy	-4232
▁asp	-4233
▁commit	-4234
▁Look	-4235
itable	-4236
▁emot	-4237
▁Check	-4238
▁tools	-4239
elling	-4240
agement	-4241
He	-4242
icial	-4243
anda	-4244
▁Frank	-4245
-4	-4246
▁rat	-4247
▁weekend	-4248
▁Real	-4249
▁cars	-4250
▁fly	-4251
▁Ann	-4252
▁god	-4253
▁allows	-4254
▁Watch	-4255
▁Bob	-4256
▁Central	-4257
▁sports	-4258
ava	-4259
uing	-4260
▁politics	-4261
▁Nov	-4262
Pro	-4263
▁rare	-4264
▁Jud	-4265
▁rich	-4266
UM	-4267
▁NY	-4268
ideo	-4269
▁coin	-4270
31	-4271
!!!	-4272
can	-4273
▁boot	-4274
atically	-4275
ography	-4276
▁manufact	-4277
▁passed	-4278
▁Chris	-4279
▁peace	-4280
▁Florida	-4281
▁Vol	-4282
▁died	-4283
▁clos	-4284
▁shared	-4285
but	-4286
gency	-4287
aters	-4288
▁partners	-4289
lor	-4290
▁Christian	-4291
▁gain	-4292
▁calc	-4293
........	-4294
while	-4295
▁48	-4296
▁sources	-4297
▁micro	-4298
▁owners	-4299
lets	-4300
▁IT	-4301
miss	-4302
ader	-4303
▁SE	-4304
met	-4305
ship	-4306
works	-4307
▁EU	-4308
▁pictures	-4309
▁ensure	-4310
adow	-4311
▁2.	-4312
▁developed	-4313
▁contain	-4314
apers	-4315
▁remain	-4316
ada	-4317
▁offers	-4318
▁Ext	-4319
▁primary	-4320
riage	-4321
▁Wal	-4322
▁benefit	-4323
icip	-4324
▁Johnson	-4325
izations	-4326
ibrary	-4327
▁mobile	-4328
ATION	-4329
▁biggest	-4330
▁images	-4331
:30	-4332
▁FOR	-4333
▁challenge	-4334
iest	-4335
▁script	-4336
orry	-4337
arant	-4338
bu	-4339
▁agree	-4340
▁Vir	-4341
atively	-4342
▁Social	-4343
ronic	-4344
▁Color	-4345
As	-4346
▁criminal	-4347
▁analy	-4348
▁happens	-4349
▁shooting	-4350
▁dollars	-4351
▁removed	-4352
arning	-4353
▁funding	-4354
▁traffic	-4355
▁truly	-4356
▁updates	-4357
▁remove	-4358
oving	-4359
istics	-4360
fo	-4361
▁analysis	-4362
▁Research	-4363
▁Chicago	-4364
▁Minister	-4365
uke	-4366
ca	-4367
yth	-4368
ATE	-4369
nel	-4370
iger	-4371
▁Joe	-4372
olic	-4373
▁Stat	-4374
▁van	-4375
dden	-4376
▁que	-4377
icians	-4378
▁ing	-4379
▁digital	-4380
▁Arch	-4381
ocation	-4382
▁blue	-4383
▁prin	-4384
▁AD	-4385
▁religious	-4386
▁origin	-4387
")	-4388
▁Run	-4389
▁Pan	-4390
yer	-4391
▁Den	-4392
▁1/	-4393
ula	-4394
▁modern	-4395
la	-4396
acity	-4397
▁qual	-4398
oves	-4399
▁Hy	-4400
▁bag	-4401
▁Max	-4402
apping	-4403
▁gather	-4404
▁nom	-4405
PR	-4406
ipl	-4407
▁possibly	-4408
▁provides	-4409
46	-4410
▁speak	-4411
amm	-4412
▁seemed	-4413
word	-4414
▁Sign	-4415
han	-4416
▁Jeff	-4417
▁floor	-4418
▁bomb	-4419
▁agency	-4420
▁Lin	-4421
▁application	-4422
▁38	-4423
▁Stand	-4424
▁draft	-4425
▁league	-4426
ulf	-4427
▁chem	-4428
▁DE	-4429
▁amb	-4430
▁starts	-4431
▁comfort	-4432
▁Life	-4433
▁adding	-4434
▁feeling	-4435
▁camera	-4436
acked	-4437
craft	-4438
▁brow	-4439
▁Iran	-4440
▁Ver	-4441
▁SC	-4442
▁vill	-4443
▁Special	-4444
▁rates	-4445
▁Senate	-4446
2.	-4447
▁Blue	-4448
▁plant	-4449
ustr	-4450
▁pool	-4451
▁reasons	-4452
▁successful	-4453
▁recommend	-4454
▁sudden	-4455
▁Arab	-4456
▁conference	-4457
▁Jones	-4458
▁College	-4459
▁core	-4460
▁button	-4461
?)	-4462
▁flo	-4463
▁telling	-4464
TM	-4465
▁glass	-4466
▁investigation	-4467
▁measure	-4468
▁operations	-4469
▁MP	-4470
▁Micro	-4471
▁photos	-4472
actions	-4473
▁Home	-4474
och	-4475
GB	-4476
estic	-4477
azine	-4478
▁guard	-4479
▁Dark	-4480
rim	-4481
▁folks	-4482
-8	-4483
▁Japanese	-4484
▁Note	-4485
▁editor	-4486
▁Call	-4487
ties	-4488
▁freed	-4489
▁Project	-4490
▁Bur	-4491
▁farm	-4492
▁links	-4493
▁Best	-4494
andon	-4495
▁Democratic	-4496
▁Those	-4497
▁willing	-4498
point	-4499
▁batter	-4500
Re	-4501
▁memory	-4502
kins	-4503
uct	-4504
▁traditional	-4505
▁fle	-4506
inner	-4507
uled	-4508
▁Robert	-4509
▁Gen	-4510
▁Develop	-4511
▁haven	-4512
▁explain	-4513
▁01	-4514
▁addition	-4515
▁Today	-4516
▁fant	-4517
stream	-4518
▁acqu	-4519
▁Justice	-4520
▁beg	-4521
▁plug	-4522
cles	-4523
▁error	-4524
▁Because	-4525
▁stopped	-4526
▁36	-4527
going	-4528
ached	-4529
▁Mary	-4530
▁restrict	-4531
arsh	-4532
SE	-4533
▁copy	-4534
otal	-4535
▁Ok	-4536
▁meant	-4537
78	-4538
▁patch	-4539
Sp	-4540
▁baby	-4541
war	-4542
acher	-4543
▁Office	-4544
▁equipment	-4545
▁attract	-4546
lete	-4547
▁investment	-4548
-3	-4549
▁nature	-4550
▁amazing	-4551
▁Advertis	-4552
▁coverage	-4553
▁2000	-4554
rie	-4555
▁lots	-4556
▁shall	-4557
bar	-4558
▁collection	-4559
ancing	-4560
rick	-4561
▁neighbor	-4562
opt	-4563
ocket	-4564
power	-4565
ynam	-4566
▁transport	-4567
tes	-4568
▁Review	-4569
▁families	-4570
orney	-4571
upp	-4572
arge	-4573
And	-4574
semb	-4575
▁supply	-4576
▁keeping	-4577
▁otherwise	-4578
43	-4579
▁demonstr	-4580
▁concept	-4581
▁literally	-4582
soft	-4583
▁Love	-4584
▁Carol	-4585
▁princ	-4586
▁estim	-4587
▁san	-4588
▁driver	-4589
razy	-4590
▁cash	-4591
ented	-4592
hen	-4593
▁bottom	-4594
▁auth	-4595
▁professional	-4596
▁income	-4597
▁produce	-4598
▁documents	-4599
▁earth	-4600
▁turns	-4601
▁learned	-4602
▁Follow	-4603
▁Media	-4604
vention	-4605
isf	-4606
▁compared	-4607
EST	-4608
▁female	-4609
▁decades	-4610
odies	-4611
▁ww	-4612
▁Apple	-4613
▁string	-4614
owing	-4615
▁toward	-4616
▁determin	-4617
▁confirmed	-4618
▁truth	-4619
▁remind	-4620
▁hun	-4621
▁brief	-4622
▁Plan	-4623
▁Mel	-4624
oyal	-4625
▁pitch	-4626
▁population	-4627
▁tele	-4628
▁providing	-4629
▁Gar	-4630
▁Hillary	-4631
▁ton	-4632
ding	-4633
▁wa	-4634
▁Fox	-4635
▁ended	-4636
eah	-4637
▁cas	-4638
▁opened	-4639
▁putting	-4640
orial	-4641
▁Hist	-4642
▁Liber	-4643
orage	-4644
1.	-4645
▁Conn	-4646
▁continues	-4647
icious	-4648
</	-4649
▁corner	-4650
▁Ro	-4651
agn	-4652
▁reform	-4653
▁(19	-4654
owl	-4655
▁patients	-4656
▁Club	-4657
▁Jer	-4658
▁century	-4659
SA	-4660
55	-4661
▁Once	-4662
▁park	-4663
▁temper	-4664
▁destroy	-4665
arp	-4666
▁Francis	-4667
▁input	-4668
▁units	-4669
▁videos	-4670
▁officer	-4671
itors	-4672
▁Far	-4673
▁pattern	-4674
▁charges	-4675
▁Light	-4676
▁standing	-4677
▁IP	-4678
▁powerful	-4679
ato	-4680
ossible	-4681
▁purchase	-4682
▁tom	-4683
▁region	-4684
phone	-4685
▁wood	-4686
▁partner	-4687
state	-4688
levant	-4689
▁sitting	-4690
▁crime	-4691
▁Sing	-4692
ighter	-4693
Don	-4694
tered	-4695
▁heads	-4696
▁CO	-4697
▁NO	-4698
▁restaur	-4699
▁Ep	-4700
▁Commission	-4701
CT	-4702
▁Hard	-4703
▁predict	-4704
▁Tem	-4705
▁Union	-4706
▁OS	-4707
▁none	-4708
▁enforcement	-4709
▁extremely	-4710
▁www	-4711
▁weapons	-4712
▁bull	-4713
▁Click	-4714
▁shop	-4715
▁33	-4716
▁types	-4717
ribe	-4718
▁Mass	-4719
igan	-4720
▁AL	-4721
▁illegal	-4722
▁dire	-4723
▁greater	-4724
ker	-4725
▁although	-4726
edia	-4727
▁older	-4728
▁worse	-4729
Ar	-4730
▁economy	-4731
▁Data	-4732
oted	-4733
▁Report	-4734
▁posts	-4735
42	-4736
▁print	-4737
asp	-4738
▁continued	-4739
▁chair	-4740
▁Peter	-4741
▁Join	-4742
▁upgr	-4743
acement	-4744
▁eat	-4745
▁hospital	-4746
▁covered	-4747
▁thus	-4748
ems	-4749
▁Vict	-4750
▁devices	-4751
77	-4752
hand	-4753
▁difference	-4754
term	-4755
II	-4756
▁apply	-4757
▁categ	-4758
▁obvious	-4759
▁signed	-4760
Con	-4761
ario	-4762
▁ends	-4763
▁Elect	-4764
69	-4765
enses	-4766
▁fixed	-4767
▁Germany	-4768
▁Fam	-4769
▁flag	-4770
ano	-4771
▁lit	-4772
▁fellow	-4773
▁commercial	-4774
▁ok	-4775
::	-4776
▁mir	-4777
▁Bank	-4778
▁Fil	-4779
AB	-4780
▁adjust	-4781
▁Cop	-4782
outhern	-4783
sters	-4784
▁rank	-4785
onent	-4786
▁limit	-4787
iser	-4788
▁unless	-4789
dr	-4790
▁->	-4791
▁diss	-4792
▁Men	-4793
▁("	-4794
irty	-4795
▁understanding	-4796
ested	-4797
▁Korea	-4798
iliar	-4799
▁beautiful	-4800
▁compar	-4801
-10	-4802
illy	-4803
▁Lat	-4804
▁Put	-4805
afe	-4806
▁75	-4807
ched	-4808
rist	-4809
▁(1	-4810
▁hate	-4811
▁magic	-4812
iverse	-4813
▁noted	-4814
▁CON	-4815
▁purpose	-4816
Ex	-4817
There	-4818
▁crew	-4819
azon	-4820
▁generation	-4821
▁Enter	-4822
▁Const	-4823
▁organization	-4824
▁Set	-4825
▁Tit	-4826
Bl	-4827
cel	-4828
ogue	-4829
▁interested	-4830
terday	-4831
▁List	-4832
▁mut	-4833
▁Build	-4834
▁Water	-4835
▁valid	-4836
▁useful	-4837
▁voters	-4838
▁learning	-4839
ashion	-4840
▁surround	-4841
aded	-4842
▁conflic	-4843
▁responsible	-4844
▁Jul	-4845
▁Rom	-4846
▁Wood	-4847
▁tow	-4848
antage	-4849
▁activities	-4850
elly	-4851
▁separate	-4852
▁reference	-4853
active	-4854
▁bon	-4855
▁suggested	-4856
▁attend	-4857
▁protection	-4858
▁harm	-4859
▁CD	-4860
antic	-4861
▁Committee	-4862
rip	-4863
uit	-4864
▁debate	-4865
▁100%	-4866
▁studies	-4867
▁Christmas	-4868
▁trial	-4869
▁establish	-4870
▁Syria	-4871
▁Ma	-4872
▁remains	-4873
▁mental	-4874
▁tests	-4875
▁mail	-4876
▁south	-4877
▁climate	-4878
▁300	-4879
cons	-4880
▁Program	-4881
▁updated	-4882
▁caused	-4883
▁register	-4884
ategy	-4885
▁supported	-4886
▁witness	-4887
▁Sn	-4888
▁37	-4889
▁parties	-4890
▁fill	-4891
▁larger	-4892
▁twice	-4893
▁cancer	-4894
▁format	-4895
▁announce	-4896
upid	-4897
PD	-4898
▁subs	-4899
sell	-4900
▁residents	-4901
▁pil	-4902
▁radio	-4903
▁paying	-4904
But	-4905
▁Fre	-4906
▁existing	-4907
▁Where	-4908
▁Steve	-4909
▁exchange	-4910
▁winning	-4911
▁lock	-4912
fs	-4913
▁rid	-4914
▁leadership	-4915
▁Government	-4916
▁Child	-4917
IV	-4918
mod	-4919
▁models	-4920
roc	-4921
▁honest	-4922
▁creating	-4923
iated	-4924
▁hearing	-4925
▁spending	-4926
▁zero	-4927
xy	-4928
▁internal	-4929
run	-4930
iki	-4931
▁Sup	-4932
▁Jes	-4933
uzz	-4934
▁MS	-4935
▁OR	-4936
igation	-4937
▁Thomas	-4938
hi	-4939
▁reduce	-4940
▁Jon	-4941
unction	-4942
look	-4943
FC	-4944
▁Dam	-4945
▁nuclear	-4946
▁hol	-4947
▁finding	-4948
▁Work	-4949
▁hundreds	-4950
▁brother	-4951
▁finish	-4952
▁charged	-4953
Com	-4954
▁intelligence	-4955
▁Republicans	-4956
▁scale	-4957
▁vir	-4958
▁guide	-4959
▁leaves	-4960
▁buff	-4961
▁Card	-4962
▁Next	-4963
▁Ill	-4964
▁policies	-4965
▁bare	-4966
ortunately	-4967
▁requires	-4968
▁Atl	-4969
▁rub	-4970
▁England	-4971
▁aim	-4972
▁Louis	-4973
▁Night	-4974
▁changing	-4975
know	-4976
▁GM	-4977
▁failure	-4978
rees	-4979
▁Canadian	-4980
icide	-4981
abs	-4982
▁depend	-4983
▁democr	-4984
aped	-4985
▁Maybe	-4986
▁overall	-4987
onna	-4988
▁Full	-4989
▁absolutely	-4990
▁DC	-4991
otic	-4992
▁tend	-4993
▁slightly	-4994
▁associated	-4995
▁Charl	-4996
isation	-4997
▁Week	-4998
▁cities	-4999
▁millions	-5000
▁Cre	-5001
▁struct	-5002
▁Hol	-5003
ini	-5004
▁construction	-5005
▁sick	-5006
▁Gal	-5007
▁Main	-5008
▁advance	-5009
▁PS	-5010
▁influence	-5011
ola	-5012
▁prices	-5013
▁subsc	-5014
▁African	-5015
▁During	-5016
AF	-5017
▁Ryan	-5018
bert	-5019
ensions	-5020
66	-5021
ORE	-5022
▁Expl	-5023
▁Second	-5024
cohol	-5025
▁package	-5026
isher	-5027
arks	-5028
▁majority	-5029
▁Capt	-5030
▁Los	-5031
▁Conf	-5032
▁Lake	-5033
▁fish	-5034
▁trail	-5035
boy	-5036
▁tun	-5037
▁consult	-5038
▁produced	-5039
▁sets	-5040
uries	-5041
▁shift	-5042
▁totally	-5043
▁faith	-5044
▁Start	-5045
reek	-5046
▁academ	-5047
AK	-5048
▁Richard	-5049
▁rise	-5050
▁DO	-5051
5,	-5052
▁err	-5053
▁accur	-5054
▁IM	-5055
prof	-5056
▁Win	-5057
which	-5058
ita	-5059
▁skills	-5060
▁pin	-5061
da	-5062
▁Boy	-5063
▁insurance	-5064
▁tech	-5065
▁north	-5066
uous	-5067
oking	-5068
▁Yet	-5069
▁Space	-5070
▁fold	-5071
▁sad	-5072
▁Vis	-5073
Is	-5074
▁pal	-5075
▁34	-5076
▁killing	-5077
▁corporate	-5078
urb	-5079
▁victims	-5080
▁selling	-5081
▁fuel	-5082
▁spell	-5083
▁challeng	-5084
▁BE	-5085
▁3,	-5086
uana	-5087
yright	-5088
sec	-5089
▁Haw	-5090
▁forget	-5091
▁reporting	-5092
],	-5093
rier	-5094
▁cris	-5095
▁hyp	-5096
▁cart	-5097
rog	-5098
▁Games	-5099
mission	-5100
▁Year	-5101
▁output	-5102
▁express	-5103
▁Pri	-5104
▁steps	-5105
▁nar	-5106
▁Hell	-5107
▁Orig	-5108
AND	-5109
▁suppl	-5110
▁daughter	-5111
▁managed	-5112
▁sounds	-5113
▁operation	-5114
▁authorities	-5115
▁mine	-5116
▁Support	-5117
▁Jose	-5118
▁About	-5119
▁64	-5120
▁individuals	-5121
▁filled	-5122
▁monitor	-5123
▁Gra	-5124
▁ment	-5125
▁apart	-5126
cr	-5127
▁communities	-5128
####	-5129
▁Their	-5130
▁Human	-5131
▁protest	-5132
rome	-5133
▁sequ	-5134
▁Board	-5135
▁CN	-5136
ternal	-5137
3.	-5138
▁Test	-5139
▁ther	-5140
▁tiny	-5141
▁tree	-5142
▁CR	-5143
ayer	-5144
unte	-5145
▁stress	-5146
▁Mont	-5147
ugh	-5148
▁novel	-5149
▁heat	-5150
▁Guard	-5151
▁arrived	-5152
▁breat	-5153
▁exerc	-5154
oil	-5155
▁Wild	-5156
▁orders	-5157
▁channel	-5158
▁clim	-5159
ye	-5160
▁Champ	-5161
▁Level	-5162
▁reflect	-5163
▁aid	-5164
▁candidate	-5165
▁NFL	-5166
ura	-5167
▁Church	-5168
▁frame	-5169
▁boss	-5170
No	-5171
iner	-5172
▁CL	-5173
▁audience	-5174
▁exclus	-5175
▁Source	-5176
▁Bas	-5177
▁whom	-5178
▁revealed	-5179
▁achieve	-5180
▁sho	-5181
▁Institute	-5182
text	-5183
lands	-5184
▁River	-5185
▁multi	-5186
▁EN	-5187
9,	-5188
▁anc	-5189
ESS	-5190
▁Although	-5191
uls	-5192
you	-5193
▁becomes	-5194
▁plays	-5195
▁stars	-5196
CC	-5197
▁Still	-5198
pet	-5199
▁row	-5200
rible	-5201
▁Ins	-5202
▁rent	-5203
SS	-5204
▁sand	-5205
▁spirit	-5206
▁labor	-5207
▁Director	-5208
ections	-5209
fe	-5210
▁..	-5211
▁pulled	-5212
▁justice	-5213
▁Cat	-5214
▁animals	-5215
▁task	-5216
▁Cross	-5217
▁becoming	-5218
▁executive	-5219
▁score	-5220
iat	-5221
real	-5222
On	-5223
oub	-5224
▁laugh	-5225
▁Bush	-5226
▁Mount	-5227
▁Way	-5228
▁nine	-5229
ffee	-5230
▁Army	-5231
onymous	-5232
▁degree	-5233
▁arr	-5234
▁moves	-5235
▁Rev	-5236
▁Journal	-5237
▁connection	-5238
▁context	-5239
▁Make	-5240
▁tag	-5241
levision	-5242
▁Right	-5243
▁boost	-5244
▁du	-5245
equ	-5246
ownt	-5247
▁FR	-5248
▁drugs	-5249
ora	-5250
▁independent	-5251
▁border	-5252
▁Virgin	-5253
▁refuge	-5254
▁reached	-5255
▁Thank	-5256
▁technical	-5257
▁Land	-5258
place	-5259
anged	-5260
▁thank	-5261
▁egg	-5262
▁sale	-5263
▁instruct	-5264
▁born	-5265
▁rain	-5266
▁easier	-5267
▁iT	-5268
▁bug	-5269
▁fucking	-5270
▁electric	-5271
▁combat	-5272
▁faster	-5273
▁CEO	-5274
pty	-5275
58	-5276
ILL	-5277
▁awesome	-5278
isters	-5279
▁vehicle	-5280
asure	-5281
▁prove	-5282
▁Ol	-5283
▁incident	-5284
▁assum	-5285
▁Code	-5286
ackson	-5287
▁advoc	-5288
otes	-5289
▁Bern	-5290
▁episode	-5291
bour	-5292
▁Did	-5293
stein	-5294
▁Phot	-5295
▁spoke	-5296
▁Old	-5297
Al	-5298
▁SS	-5299
▁Lee	-5300
▁Oper	-5301
▁Cy	-5302
▁Never	-5303
▁defend	-5304
▁signs	-5305
▁negot	-5306
▁competition	-5307
▁blind	-5308
▁matters	-5309
▁rot	-5310
▁odd	-5311
▁doubt	-5312
▁wearing	-5313
▁tweet	-5314
ruption	-5315
▁Id	-5316
▁Pac	-5317
▁serve	-5318
▁Kim	-5319
▁Daily	-5320
▁fell	-5321
▁appeared	-5322
▁messages	-5323
▁Dig	-5324
▁Author	-5325
ijuana	-5326
▁Food	-5327
espite	-5328
▁supporting	-5329
▁Pass	-5330
post	-5331
▁abuse	-5332
▁Pay	-5333
▁shel	-5334
->	-5335
LC	-5336
▁Grand	-5337
▁client	-5338
▁EX	-5339
▁expert	-5340
▁appropri	-5341
MS	-5342
▁Hun	-5343
▁pm	-5344
-201	-5345
▁Mot	-5346
▁worst	-5347
arden	-5348
▁craft	-5349
▁Martin	-5350
▁strateg	-5351
▁chain	-5352
▁solution	-5353
▁teen	-5354
▁trigger	-5355
▁Lo	-5356
▁3.	-5357
▁SU	-5358
▁apprec	-5359
▁Kn	-5360
▁tough	-5361
cellent	-5362
▁disease	-5363
].	-5364
▁conservative	-5365
▁delay	-5366
▁award	-5367
▁Somet	-5368
ERE	-5369
▁welcome	-5370
▁usual	-5371
uate	-5372
▁pieces	-5373
▁symb	-5374
▁HD	-5375
UL	-5376
idel	-5377
▁votes	-5378
def	-5379
▁Keep	-5380
▁joined	-5381
lines	-5382
aser	-5383
▁sav	-5384
▁thr	-5385
▁Pack	-5386
▁Democrats	-5387
acter	-5388
▁agencies	-5389
▁gam	-5390
free	-5391
▁warning	-5392
rypt	-5393
▁funds	-5394
rency	-5395
exp	-5396
▁ring	-5397
▁helping	-5398
rs	-5399
▁basis	-5400
OO	-5401
▁issued	-5402
obody	-5403
▁prepared	-5404
claim	-5405
▁Association	-5406
imp	-5407
icken	-5408
▁spons	-5409
ologies	-5410
▁negative	-5411
acle	-5412
bur	-5413
gment	-5414
▁repeated	-5415
▁France	-5416
▁forg	-5417
▁Both	-5418
▁weak	-5419
PA	-5420
erous	-5421
▁99	-5422
class	-5423
▁surface	-5424
▁previously	-5425
▁concerns	-5426
sm	-5427
abb	-5428
▁clin	-5429
▁Jackson	-5430
▁indic	-5431
▁allowing	-5432
What	-5433
▁termin	-5434
▁Dom	-5435
▁homes	-5436
vy	-5437
ortion	-5438
▁Business	-5439
▁advert	-5440
▁55	-5441
▁passing	-5442
▁offering	-5443
▁Aff	-5444
▁imagine	-5445
▁annual	-5446
▁iTunes	-5447
▁freedom	-5448
▁Take	-5449
essions	-5450
▁Sher	-5451
▁alt	-5452
▁);	-5453
7,	-5454
▁bound	-5455
rid	-5456
dy	-5457
▁veter	-5458
▁Africa	-5459
UST	-5460
▁Div	-5461
PM	-5462
▁raise	-5463
________________	-5464
▁afford	-5465
▁Uk	-5466
▁Hor	-5467
rovers	-5468
▁optim	-5469
den	-5470
▁Head	-5471
▁handle	-5472
For	-5473
noon	-5474
▁Hot	-5475
cious	-5476
kes	-5477
▁youth	-5478
▁assess	-5479
▁circum	-5480
▁discussion	-5481
oston	-5482
▁pointed	-5483
▁Death	-5484
▁lob	-5485
anges	-5486
ulous	-5487
▁occup	-5488
They	-5489
▁wear	-5490
▁Di	-5491
▁Fort	-5492
umps	-5493
foot	-5494
2)	-5495
▁49	-5496
▁ath	-5497
▁Key	-5498
▁mal	-5499
▁hus	-5500
▁cert	-5501
▁views	-5502
88	-5503
▁encoun	-5504
game	-5505
rast	-5506
▁Van	-5507
▁seek	-5508
▁Mur	-5509
▁1000	-5510
▁dial	-5511
wr	-5512
▁Pot	-5513
▁standards	-5514
▁Mult	-5515
▁tells	-5516
ansion	-5517
▁Image	-5518
eder	-5519
osen	-5520
▁Cup	-5521
▁Cath	-5522
IGH	-5523
▁Mat	-5524
▁businesses	-5525
▁yesterday	-5526
pir	-5527
▁Have	-5528
▁Science	-5529
▁opinion	-5530
adium	-5531
▁PL	-5532
▁gay	-5533
▁2006	-5534
gent	-5535
▁mere	-5536
▁listed	-5537
abase	-5538
▁spect	-5539
▁hat	-5540
▁listen	-5541
esis	-5542
▁claimed	-5543
▁appeal	-5544
▁helps	-5545
cho	-5546
TA	-5547
▁Lim	-5548
▁proof	-5549
van	-5550
▁colle	-5551
abin	-5552
▁Dar	-5553
▁agreed	-5554
▁presidential	-5555
▁Link	-5556
▁familiar	-5557
▁Palest	-5558
▁Hear	-5559
▁Andrew	-5560
▁regarding	-5561
▁forms	-5562
oked	-5563
▁goals	-5564
▁definitely	-5565
▁flat	-5566
ordin	-5567
▁bodies	-5568
oding	-5569
▁trend	-5570
rc	-5571
▁mo	-5572
▁DN	-5573
▁Live	-5574
▁hab	-5575
▁Mean	-5576
acr	-5577
▁grab	-5578
▁flight	-5579
▁Three	-5580
▁accident	-5581
▁marriage	-5582
rant	-5583
za	-5584
▁Daniel	-5585
▁$5	-5586
▁snow	-5587
▁Women	-5588
log	-5589
astern	-5590
▁entry	-5591
standing	-5592
▁church	-5593
▁Holly	-5594
▁crazy	-5595
▁Adv	-5596
▁exec	-5597
▁bigger	-5598
CL	-5599
▁rh	-5600
▁Again	-5601
▁Log	-5602
▁operating	-5603
▁Federal	-5604
▁newsp	-5605
mond	-5606
▁cells	-5607
▁Video	-5608
▁Sports	-5609
▁smaller	-5610
▁spokes	-5611
▁Ron	-5612
roud	-5613
▁sea	-5614
▁ordered	-5615
▁session	-5616
▁guarant	-5617
▁planning	-5618
▁Disc	-5619
▁served	-5620
▁Find	-5621
▁broke	-5622
Un	-5623
4.	-5624
hat	-5625
▁ec	-5626
html	-5627
▁weather	-5628
▁Services	-5629
icing	-5630
▁hero	-5631
▁ped	-5632
▁arms	-5633
asters	-5634
igrants	-5635
▁Ell	-5636
ception	-5637
▁Bitcoin	-5638
▁accused	-5639
▁dropped	-5640
lock	-5641
life	-5642
▁Advertisement	-5643
ena	-5644
wing	-5645
quest	-5646
▁Mos	-5647
▁plants	-5648
▁Ari	-5649
▁seeking	-5650
road	-5651
▁minimum	-5652
▁65	-5653
▁rough	-5654
▁Hen	-5655
▁IR	-5656
uster	-5657
▁COM	-5658
▁direction	-5659
umin	-5660
arters	-5661
An	-5662
▁Cru	-5663
▁Lord	-5664
▁accounts	-5665
▁pair	-5666
▁nut	-5667
ref	-5668
▁connected	-5669
▁motor	-5670
▁cheap	-5671
▁univers	-5672
▁largest	-5673
▁obl	-5674
▁gear	-5675
▁advice	-5676
▁Foundation	-5677
▁Carolina	-5678
▁conversation	-5679
▁seriously	-5680
igs	-5681
ivery	-5682
avor	-5683
▁bright	-5684
TP	-5685
▁Arm	-5686
▁defe	-5687
▁buying	-5688
▁owner	-5689
▁launched	-5690
▁strike	-5691
DA	-5692
▁`	-5693
va	-5694
▁Chief	-5695
▁emergency	-5696
▁zone	-5697
▁39	-5698
lyn	-5699
amin	-5700
cean	-5701
▁capacity	-5702
▁propos	-5703
41	-5704
▁sust	-5705
▁pip	-5706
nergy	-5707
▁assault	-5708
▁Quest	-5709
▁Posted	-5710
▁batt	-5711
▁Sar	-5712
▁impossible	-5713
▁Before	-5714
▁stupid	-5715
▁split	-5716
▁writer	-5717
▁Ult	-5718
▁doct	-5719
▁proced	-5720
▁>>	-5721
▁suddenly	-5722
▁lie	-5723
▁tor	-5724
▁Name	-5725
▁tact	-5726
▁introduced	-5727
▁concerned	-5728
▁stuck	-5729
acc	-5730
▁mand	-5731
▁tack	-5732
▁label	-5733
▁feels	-5734
▁Clean	-5735
▁speaking	-5736
▁spr	-5737
▁sweet	-5738
hab	-5739
▁animal	-5740
▁Wr	-5741
▁ru	-5742
▁coal	-5743
ii	-5744
long	-5745
▁sam	-5746
▁crash	-5747
▁Fer	-5748
▁ble	-5749
▁dry	-5750
porary	-5751
▁carried	-5752
▁Dead	-5753
▁housing	-5754
▁happening	-5755
aa	-5756
▁worry	-5757
▁applications	-5758
level	-5759
▁fort	-5760
liam	-5761
utch	-5762
▁cro	-5763
▁element	-5764
olit	-5765
▁Though	-5766
▁environmental	-5767
▁Information	-5768
▁enh	-5769
▁resc	-5770
▁2005	-5771
▁Android	-5772
▁Invest	-5773
▁decade	-5774
▁heav	-5775
anging	-5776
▁quiet	-5777
!!!!	-5778
ran	-5779
▁planet	-5780
agues	-5781
▁Kar	-5782
▁likes	-5783
uling	-5784
ded	-5785
▁Each	-5786
PL	-5787
care	-5788
obs	-5789
Tube	-5790
▁blow	-5791
http	-5792
▁advantage	-5793
▁desk	-5794
▁vehicles	-5795
▁boys	-5796
▁Exper	-5797
▁wealth	-5798
▁requests	-5799
▁Mid	-5800
▁balance	-5801
▁ALL	-5802
▁strategy	-5803
▁structure	-5804
▁flying	-5805
▁arrested	-5806
▁sche	-5807
▁somehow	-5808
▁Rub	-5809
▁secure	-5810
▁param	-5811
▁Dev	-5812
▁reject	-5813
▁Despite	-5814
▁Educ	-5815
▁trick	-5816
▁bringing	-5817
uce	-5818
▁Nick	-5819
▁mouth	-5820
born	-5821
▁Mic	-5822
ester	-5823
PC	-5824
▁markets	-5825
▁Rod	-5826
▁organizations	-5827
▁Type	-5828
▁Foot	-5829
▁finished	-5830
▁Eff	-5831
▁Girl	-5832
▁satisf	-5833
▁Australian	-5834
▁incred	-5835
▁Microsoft	-5836
▁turning	-5837
ua	-5838
▁agreement	-5839
▁flash	-5840
▁Aud	-5841
▁Linux	-5842
▁drag	-5843
mitted	-5844
▁deploy	-5845
weet	-5846
▁eval	-5847
MA	-5848
▁Boston	-5849
▁Penn	-5850
▁Date	-5851
▁Kh	-5852
To	-5853
▁Instead	-5854
▁47	-5855
▁publish	-5856
▁innov	-5857
▁applied	-5858
▁detail	-5859
97	-5860
▁AF	-5861
▁minister	-5862
▁Offic	-5863
▁Turn	-5864
▁Prem	-5865
▁Secretary	-5866
pha	-5867
▁evening	-5868
▁spring	-5869
▁alcohol	-5870
▁surprise	-5871
▁visual	-5872
▁interests	-5873
tained	-5874
▁keeps	-5875
▁stret	-5876
▁streets	-5877
▁offensive	-5878
▁ho	-5879
▁banks	-5880
▁Islamic	-5881
stone	-5882
▁prosp	-5883
▁render	-5884
hew	-5885
▁Gall	-5886
ican	-5887
▁Tal	-5888
▁species	-5889
▁Young	-5890
▁ED	-5891
obe	-5892
▁conver	-5893
▁Low	-5894
▁maintain	-5895
86	-5896
▁committee	-5897
▁Williams	-5898
▁elements	-5899
sl	-5900
zy	-5901
ja	-5902
▁parking	-5903
type	-5904
oma	-5905
▁afternoon	-5906
▁controvers	-5907
▁Four	-5908
compl	-5909
▁Care	-5910
▁highlight	-5911
▁favour	-5912
▁bird	-5913
▁established	-5914
▁Sanders	-5915
anna	-5916
orted	-5917
liament	-5918
▁Amazon	-5919
▁Master	-5920
▁Update	-5921
▁blocks	-5922
▁Share	-5923
inct	-5924
▁Valley	-5925
alog	-5926
New	-5927
▁Community	-5928
85	-5929
▁FBI	-5930
apes	-5931
▁GOP	-5932
▁Ap	-5933
aze	-5934
onto	-5935
▁committed	-5936
▁phil	-5937
rawn	-5938
▁eth	-5939
▁paint	-5940
▁shots	-5941
ACK	-5942
▁rail	-5943
▁expensive	-5944
athan	-5945
▁mort	-5946
▁highest	-5947
▁settings	-5948
▁cloud	-5949
olved	-5950
▁Person	-5951
▁sides	-5952
▁conce	-5953
▁till	-5954
▁44	-5955
alle	-5956
anny	-5957
▁root	-5958
▁ju	-5959
▁princip	-5960
▁domestic	-5961
watch	-5962
▁tight	-5963
▁Jun	-5964
plete	-5965
▁proposed	-5966
▁suit	-5967
▁relevant	-5968
▁vul	-5969
++	-5970
▁tank	-5971
▁installed	-5972
▁storm	-5973
▁Engine	-5974
▁vision	-5975
▁opposition	-5976
IVE	-5977
▁Control	-5978
inity	-5979
▁edge	-5980
▁panel	-5981
▁liqu	-5982
▁4,	-5983
related	-5984
▁dangerous	-5985
▁Polit	-5986
▁writes	-5987
▁brings	-5988
Americ	-5989
▁developers	-5990
▁flood	-5991
▁affect	-5992
▁metal	-5993
▁discovered	-5994
itutional	-5995
▁articles	-5996
▁Dun	-5997
▁department	-5998
▁enemy	-5999
Le	-6000
▁Ken	-6001
▁experienced	-6002
▁sport	-6003
▁Little	-6004
itect	-6005
▁mixed	-6006
▁remote	-6007
▁explo	-6008
▁aggress	-6009
west	-6010
hips	-6011
▁Has	-6012
▁flow	-6013
▁prompt	-6014
ools	-6015
▁Ukrain	-6016
▁height	-6017
▁supporters	-6018
ART	-6019
water	-6020
▁Design	-6021
▁perman	-6022
rep	-6023
uh	-6024
ket	-6025
▁acknow	-6026
▁Fix	-6027
▁regul	-6028
inder	-6029
▁missed	-6030
▁marijuana	-6031
▁Ah	-6032
▁Ut	-6033
▁Its	-6034
ani	-6035
▁Bad	-6036
▁commission	-6037
▁Kenn	-6038
▁slowly	-6039
star	-6040
enda	-6041
▁Brook	-6042
▁fashion	-6043
▁virtual	-6044
▁eating	-6045
▁spin	-6046
▁Britain	-6047
▁edit	-6048
▁1:	-6049
▁reduced	-6050
▁Hand	-6051
▁dedicated	-6052
▁crisis	-6053
▁decisions	-6054
▁lin	-6055
▁shell	-6056
▁BR	-6057
▁pod	-6058
oints	-6059
▁YouTube	-6060
ols	-6061
ba	-6062
▁rapid	-6063
▁storage	-6064
▁television	-6065
▁Middle	-6066
▁Mir	-6067
▁Field	-6068
▁generally	-6069
▁bear	-6070
▁Coll	-6071
▁Contin	-6072
▁reviews	-6073
▁route	-6074
▁sharing	-6075
▁Columb	-6076
▁earn	-6077
suit	-6078
▁breaking	-6079
▁infrast	-6080
▁equal	-6081
DR	-6082
▁chat	-6083
▁Market	-6084
▁attempts	-6085
▁OK	-6086
▁ongoing	-6087
▁Francisco	-6088
▁cloth	-6089
▁losing	-6090
▁planned	-6091
▁trouble	-6092
▁BL	-6093
▁alleg	-6094
▁politicians	-6095
▁bra	-6096
▁Tri	-6097
▁Cast	-6098
▁escape	-6099
▁Organ	-6100
▁retail	-6101
angers	-6102
keep	-6103
▁alb	-6104
▁Posts	-6105
▁elimin	-6106
▁raw	-6107
▁Profess	-6108
ds	-6109
▁ast	-6110
▁Cost	-6111
▁Friend	-6112
▁hide	-6113
▁victory	-6114
▁rein	-6115
▁picked	-6116
respond	-6117
▁fif	-6118
phy	-6119
▁figures	-6120
▁materials	-6121
.-	-6122
lymp	-6123
▁$10	-6124
▁unlike	-6125
ador	-6126
▁forth	-6127
ournament	-6128
▁waste	-6129
IE	-6130
▁Cam	-6131
aints	-6132
▁menu	-6133
▁injury	-6134
▁debt	-6135
▁ride	-6136
▁stated	-6137
oken	-6138
ilit	-6139
▁Perhaps	-6140
▁volunte	-6141
▁gall	-6142
▁weapon	-6143
▁giant	-6144
8,	-6145
▁beer	-6146
oria	-6147
▁femin	-6148
▁facing	-6149
▁Angeles	-6150
FF	-6151
▁unc	-6152
▁Jewish	-6153
▁distance	-6154
uations	-6155
-9	-6156
▁42	-6157
onom	-6158
osis	-6159
▁ske	-6160
▁dress	-6161
▁wer	-6162
ourney	-6163
iro	-6164
▁truck	-6165
▁Hom	-6166
▁Virginia	-6167
▁Does	-6168
▁CA	-6169
▁UR	-6170
▁Medic	-6171
▁Prime	-6172
▁customer	-6173
oration	-6174
********	-6175
▁Box	-6176
▁powers	-6177
ikes	-6178
▁accepted	-6179
▁instit	-6180
ala	-6181
▁Total	-6182
▁ham	-6183
▁seat	-6184
▁Walk	-6185
▁requirements	-6186
▁rush	-6187
iciency	-6188
Man	-6189
ati	-6190
▁audio	-6191
▁400	-6192
▁hurt	-6193
pass	-6194
alian	-6195
▁hits	-6196
ulture	-6197
▁Paris	-6198
▁letters	-6199
▁indeed	-6200
▁replace	-6201
cluding	-6202
▁largely	-6203
▁Download	-6204
ython	-6205
▁judge	-6206
▁pure	-6207
▁shif	-6208
▁consequ	-6209
▁drivers	-6210
▁Sat	-6211
▁anyway	-6212
▁walking	-6213
ifications	-6214
▁square	-6215
rig	-6216
▁volume	-6217
..."	-6218
▁contains	-6219
OG	-6220
▁weird	-6221
nam	-6222
onic	-6223
▁hur	-6224
raud	-6225
▁exposed	-6226
▁intended	-6227
▁Global	-6228
▁territ	-6229
▁decide	-6230
▁nav	-6231
▁advent	-6232
▁theory	-6233
▁classes	-6234
▁Images	-6235
osph	-6236
▁neighborhood	-6237
▁domin	-6238
LS	-6239
mo	-6240
▁Korean	-6241
▁healthy	-6242
aine	-6243
fire	-6244
▁Mexico	-6245
▁Creat	-6246
▁150	-6247
▁Ref	-6248
▁Force	-6249
▁dynam	-6250
▁movies	-6251
▁carrying	-6252
▁combined	-6253
een	-6254
▁trees	-6255
▁bath	-6256
▁Company	-6257
▁readers	-6258
▁unknown	-6259
tle	-6260
▁Seattle	-6261
▁basically	-6262
▁meetings	-6263
▁distribut	-6264
▁Fair	-6265
▁belong	-6266
rich	-6267
obile	-6268
enger	-6269
▁column	-6270
asty	-6271
▁victim	-6272
-12	-6273
olt	-6274
▁Eric	-6275
alo	-6276
▁parent	-6277
▁windows	-6278
▁195	-6279
▁joint	-6280
All	-6281
▁Ha	-6282
▁wheel	-6283
▁dogs	-6284
▁Hollywood	-6285
▁Page	-6286
▁selection	-6287
sole	-6288
▁Lear	-6289
ixt	-6290
▁af	-6291
char	-6292
eman	-6293
▁Ms	-6294
sts	-6295
appy	-6296
df	-6297
▁quant	-6298
estival	-6299
▁confirm	-6300
▁cann	-6301
▁stores	-6302
iplom	-6303
▁yards	-6304
▁bond	-6305
▁mad	-6306
▁believed	-6307
▁PH	-6308
▁positions	-6309
▁Stan	-6310
▁Wel	-6311
▁index	-6312
▁Network	-6313
▁vo	-6314
▁$2	-6315
3)	-6316
▁steel	-6317
▁identified	-6318
▁drink	-6319
▁infrastructure	-6320
anish	-6321
▁diet	-6322
▁initi	-6323
▁Luc	-6324
▁clients	-6325
that	-6326
ducing	-6327
▁alternative	-6328
▁classic	-6329
▁gang	-6330
▁crack	-6331
▁knowing	-6332
▁District	-6333
▁Development	-6334
▁cru	-6335
▁Music	-6336
esy	-6337
▁Wars	-6338
pire	-6339
▁shape	-6340
agan	-6341
▁Ohio	-6342
▁LE	-6343
▁Dragon	-6344
▁narr	-6345
▁incor	-6346
-6	-6347
▁agent	-6348
phas	-6349
▁Ray	-6350
oster	-6351
OUN	-6352
encing	-6353
ogen	-6354
▁dim	-6355
▁iron	-6356
uan	-6357
▁hook	-6358
▁excellent	-6359
season	-6360
▁photograph	-6361
▁skill	-6362
▁obviously	-6363
▁flu	-6364
▁properly	-6365
▁Brian	-6366
▁famous	-6367
▁Inf	-6368
76	-6369
▁4.	-6370
▁topic	-6371
▁meat	-6372
▁Charles	-6373
bel	-6374
▁=>	-6375
▁Cred	-6376
bal	-6377
elled	-6378
auc	-6379
dro	-6380
▁completed	-6381
azz	-6382
▁Equ	-6383
etch	-6384
uters	-6385
▁Asian	-6386
▁aside	-6387
▁tur	-6388
▁Which	-6389
▁soul	-6390
▁measures	-6391
li	-6392
▁sending	-6393
▁professor	-6394
▁WW	-6395
conf	-6396
▁Plus	-6397
clusion	-6398
▁Ice	-6399
apy	-6400
▁versions	-6401
▁Fund	-6402
owntown	-6403
">	-6404
▁presented	-6405
▁Bon	-6406
▁Hou	-6407
ersion	-6408
▁dump	-6409
▁coast	-6410
▁explained	-6411
efully	-6412
▁bunch	-6413
▁methods	-6414
olve	-6415
▁impress	-6416
▁Sea	-6417
iques	-6418
▁observ	-6419
icted	-6420
▁talks	-6421
law	-6422
ucky	-6423
▁fields	-6424
▁entirely	-6425
▁collabor	-6426
▁construct	-6427
▁dont	-6428
▁hasn	-6429
from	-6430
▁presence	-6431
▁delivered	-6432
▁surve	-6433
▁History	-6434
▁wire	-6435
▁resident	-6436
▁Sex	-6437
osit	-6438
▁watched	-6439
▁CS	-6440
▁Email	-6441
▁plastic	-6442
▁rum	-6443
▁fro	-6444
earing	-6445
lessly	-6446
▁Pop	-6447
ao	-6448
▁Custom	-6449
▁vent	-6450
▁Story	-6451
▁Rest	-6452
ogs	-6453
▁march	-6454
▁transform	-6455
mary	-6456
TV	-6457
abilities	-6458
UD	-6459
~~	-6460
▁chemical	-6461
era	-6462
▁owned	-6463
▁Family	-6464
▁involve	-6465
▁ultimately	-6466
▁focused	-6467
▁dealing	-6468
My	-6469
cher	-6470
▁butt	-6471
▁scientific	-6472
▁46	-6473
▁Olymp	-6474
▁profile	-6475
oral	-6476
▁browser	-6477
ked	-6478
▁manip	-6479
ighters	-6480
▁located	-6481
▁Jr	-6482
PG	-6483
ugg	-6484
▁Ur	-6485
bro	-6486
▁bell	-6487
icking	-6488
▁fee	-6489
sembly	-6490
▁cultural	-6491
▁NEW	-6492
▁Action	-6493
xual	-6494
▁Bru	-6495
▁occasion	-6496
hy	-6497
iments	-6498
▁legit	-6499
issions	-6500
▁Supreme	-6501
▁suggests	-6502
GE	-6503
▁gonna	-6504
▁practices	-6505
▁Israeli	-6506
▁Spring	-6507
▁locations	-6508
conn	-6509
▁Pub	-6510
osoph	-6511
pg	-6512
▁FA	-6513
▁determ	-6514
▁factor	-6515
▁lists	-6516
▁behavi	-6517
zer	-6518
▁Harry	-6519
▁WE	-6520
▁guns	-6521
▁forum	-6522
▁concent	-6523
▁legislation	-6524
▁Palestin	-6525
eff	-6526
▁restaurant	-6527
▁sky	-6528
▁resolution	-6529
▁coffee	-6530
▁native	-6531
▁Econom	-6532
▁Doc	-6533
ansas	-6534
▁Pak	-6535
▁instance	-6536
useum	-6537
▁sole	-6538
sen	-6539
isted	-6540
▁university	-6541
▁database	-6542
fast	-6543
▁district	-6544
▁everywhere	-6545
▁creative	-6546
▁Energy	-6547
▁Adam	-6548
▁plenty	-6549
orders	-6550
▁potentially	-6551
▁approved	-6552
AW	-6553
▁scheme	-6554
▁library	-6555
▁candidates	-6556
ALL	-6557
ghan	-6558
▁crypt	-6559
▁schedule	-6560
plate	-6561
89	-6562
▁depart	-6563
▁Toronto	-6564
▁transp	-6565
athy	-6566
▁$3	-6567
▁opportunities	-6568
▁AB	-6569
/11	-6570
irts	-6571
▁mel	-6572
▁thousand	-6573
▁Online	-6574
burg	-6575
andal	-6576
▁motiv	-6577
▁lib	-6578
▁ticket	-6579
▁abandon	-6580
▁degrees	-6581
▁contem	-6582
edge	-6583
▁determined	-6584
world	-6585
▁moral	-6586
▁Beach	-6587
▁isol	-6588
▁tomorrow	-6589
▁Ent	-6590
ordan	-6591
▁Priv	-6592
▁Society	-6593
▁theme	-6594
▁extended	-6595
▁Mess	-6596
▁Ball	-6597
oen	-6598
▁OP	-6599
▁ME	-6600
gypt	-6601
▁rig	-6602
▁Was	-6603
ician	-6604
▁Roll	-6605
▁publicly	-6606
▁everybody	-6607
▁Sep	-6608
arry	-6609
isms	-6610
page	-6611
▁Prov	-6612
awa	-6613
overy	-6614
▁loved	-6615
▁weren	-6616
▁magazine	-6617
▁Tay	-6618
▁warm	-6619
osa	-6620
▁cere	-6621
▁depth	-6622
▁army	-6623
iform	-6624
▁leads	-6625
▁doctor	-6626
▁2004	-6627
▁renew	-6628
▁pushed	-6629
lan	-6630
▁NC	-6631
lers	-6632
▁tested	-6633
imm	-6634
udes	-6635
▁filter	-6636
dis	-6637
core	-6638
rad	-6639
▁Wilson	-6640
▁advanced	-6641
▁Kevin	-6642
▁breast	-6643
uated	-6644
▁herself	-6645
▁underst	-6646
▁strange	-6647
▁^	-6648
▁functions	-6649
▁03	-6650
mates	-6651
▁Camer	-6652
▁Current	-6653
▁usage	-6654
▁affected	-6655
▁5,	-6656
itty	-6657
▁selected	-6658
▁Bell	-6659
▁Case	-6660
ITH	-6661
ulating	-6662
▁numerous	-6663
▁entertain	-6664
▁43	-6665
only	-6666
▁linked	-6667
▁95	-6668
hop	-6669
▁Price	-6670
▁desper	-6671
▁ris	-6672
agram	-6673
▁hack	-6674
▁sister	-6675
▁oh	-6676
xx	-6677
bell	-6678
▁Colorado	-6679
▁returned	-6680
▁Saud	-6681
▁Dou	-6682
▁bench	-6683
▁hotel	-6684
▁Non	-6685
▁begins	-6686
▁tab	-6687
▁Core	-6688
▁pra	-6689
▁battery	-6690
▁mm	-6691
▁cycle	-6692
ointed	-6693
1)	-6694
▁circumst	-6695
▁breaks	-6696
▁fired	-6697
▁screens	-6698
▁objects	-6699
asks	-6700
▁plate	-6701
▁bab	-6702
▁filed	-6703
▁Veg	-6704
▁empty	-6705
▁feedback	-6706
▁immigration	-6707
▁persp	-6708
izer	-6709
reh	-6710
▁explos	-6711
▁argument	-6712
this	-6713
ework	-6714
▁variety	-6715
▁Event	-6716
ounded	-6717
▁ending	-6718
arity	-6719
▁deals	-6720
▁None	-6721
That	-6722
▁120	-6723
▁Bat	-6724
ront	-6725
▁humans	-6726
ecutive	-6727
iations	-6728
▁Tony	-6729
▁gender	-6730
▁medic	-6731
hus	-6732
▁pret	-6733
▁routine	-6734
▁alive	-6735
rum	-6736
▁vulner	-6737
called	-6738
▁anywhere	-6739
▁Ve	-6740
▁voting	-6741
▁yellow	-6742
▁thoughts	-6743
DP	-6744
▁Ty	-6745
acon	-6746
▁Pacific	-6747
▁Scot	-6748
▁Carl	-6749
▁Greg	-6750
cluded	-6751
▁athlet	-6752
▁li	-6753
▁supports	-6754
▁council	-6755
▁cuts	-6756
▁conven	-6757
▁houses	-6758
usted	-6759
▁taste	-6760
aka	-6761
▁somewhere	-6762
▁decent	-6763
▁responsibility	-6764
▁scream	-6765
away	-6766
asm	-6767
▁statements	-6768
inations	-6769
▁hardware	-6770
▁cup	-6771
▁hall	-6772
▁$100	-6773
▁laid	-6774
ORT	-6775
▁lights	-6776
▁Asia	-6777
▁facts	-6778
▁appearance	-6779
▁Os	-6780
▁discl	-6781
▁checks	-6782
▁patient	-6783
greg	-6784
▁veget	-6785
▁recover	-6786
rage	-6787
▁moder	-6788
▁faces	-6789
▁apps	-6790
▁funny	-6791
▁adds	-6792
▁experiment	-6793
.99	-6794
lights	-6795
-7	-6796
▁Ram	-6797
▁compat	-6798
▁treated	-6799
▁expressed	-6800
inding	-6801
▁Michigan	-6802
aza	-6803
UC	-6804
▁Town	-6805
iamond	-6806
▁Resp	-6807
▁artist	-6808
▁Reply	-6809
▁acce	-6810
▁west	-6811
▁Ra	-6812
rell	-6813
allas	-6814
▁85	-6815
▁Swed	-6816
gor	-6817
▁08	-6818
▁DR	-6819
▁assets	-6820
▁radical	-6821
▁institutions	-6822
▁Jac	-6823
▁Help	-6824
▁mini	-6825
▁Dave	-6826
▁realize	-6827
▁marketing	-6828
▁auto	-6829
▁NH	-6830
▁Die	-6831
▁correspond	-6832
omp	-6833
▁lad	-6834
▁solar	-6835
▁da	-6836
▁Mach	-6837
enders	-6838
▁porn	-6839
▁forever	-6840
▁Magic	-6841
▁withd	-6842
▁controls	-6843
▁mac	-6844
▁Cub	-6845
▁CC	-6846
▁SM	-6847
▁taxes	-6848
IST	-6849
▁facilities	-6850
erves	-6851
▁fourth	-6852
▁cow	-6853
▁THIS	-6854
▁inspired	-6855
▁Po	-6856
adel	-6857
▁Gre	-6858
▁Rog	-6859
▁husband	-6860
▁returns	-6861
▁buildings	-6862
▁king	-6863
uction	-6864
▁fees	-6865
▁Santa	-6866
▁Fall	-6867
▁Education	-6868
ses	-6869
▁ridic	-6870
▁fake	-6871
▁dish	-6872
▁survey	-6873
▁hoping	-6874
▁thinks	-6875
▁examples	-6876
▁41	-6877
▁friendly	-6878
▁hole	-6879
▁pump	-6880
================	-6881
▁Jesus	-6882
▁replaced	-6883
▁developing	-6884
▁Ford	-6885
fix	-6886
▁posting	-6887
spec	-6888
▁Rose	-6889
▁tied	-6890
aping	-6891
▁plot	-6892
▁specifically	-6893
▁Norm	-6894
▁conflict	-6895
ANT	-6896
▁VR	-6897
▁Base	-6898
▁util	-6899
▁Reddit	-6900
▁cutting	-6901
▁pushing	-6902
▁proud	-6903
agger	-6904
▁Very	-6905
▁dismiss	-6906
▁fab	-6907
▁ven	-6908
▁Order	-6909
▁Roman	-6910
▁union	-6911
iana	-6912
▁elected	-6913
▁delivery	-6914
▁·	-6915
▁Circ	-6916
essed	-6917
rav	-6918
▁PD	-6919
ographic	-6920
eding	-6921
ockey	-6922
96	-6923
▁Hit	-6924
▁Davis	-6925
▁Egypt	-6926
▁soldiers	-6927
▁Player	-6928
▁sight	-6929
▁puts	-6930
▁diplom	-6931
alty	-6932
▁winter	-6933
▁dozen	-6934
▁2003	-6935
▁severe	-6936
▁purposes	-6937
▁considering	-6938
▁Fun	-6939
▁dram	-6940
▁Houston	-6941
▁Burn	-6942
▁punch	-6943
▁talent	-6944
▁hidden	-6945
ima	-6946
▁unp	-6947
tenance	-6948
So	-6949
87	-6950
▁Rights	-6951
▁agents	-6952
▁upcoming	-6953
una	-6954
▁license	-6955
onder	-6956
▁payment	-6957
▁Brad	-6958
▁intel	-6959
▁smoke	-6960
▁broadcast	-6961
▁defensive	-6962
▁approx	-6963
ifer	-6964
yo	-6965
▁Meanwhile	-6966
▁schol	-6967
▁Rick	-6968
▁sector	-6969
lee	-6970
▁cooper	-6971
▁True	-6972
▁targets	-6973
aching	-6974
▁evil	-6975
▁suicide	-6976
ko	-6977
▁tip	-6978
▁setup	-6979
▁revolution	-6980
▁Policy	-6981
▁enemies	-6982
eters	-6983
oured	-6984
chester	-6985
▁elev	-6986
▁legend	-6987
leep	-6988
▁CPU	-6989
▁Battle	-6990
▁closer	-6991
▁feat	-6992
▁aircraft	-6993
▁GO	-6994
▁ax	-6995
▁manage	-6996
SC	-6997
pay	-6998
uz	-6999
▁Kir	-7000
▁surprising	-7001
▁increasingly	-7002
iami	-7003
prise	-7004
▁Access	-7005
When	-7006
▁narrow	-7007
uns	-7008
yers	-7009
▁Miller	-7010
▁identity	-7011
▁basket	-7012
▁networks	-7013
▁automatically	-7014
ithub	-7015
▁Cook	-7016
▁::	-7017
pool	-7018
▁Try	-7019
iences	-7020
▁jack	-7021
yes	-7022
▁refused	-7023
▁receiving	-7024
▁q	-7025
▁proceed	-7026
▁HE	-7027
▁elections	-7028
▁recorded	-7029
▁()	-7030
▁surf	-7031
▁hopes	-7032
▁appropriate	-7033
▁neck	-7034
who	-7035
regon	-7036
▁Line	-7037
▁Sky	-7038
▁tail	-7039
▁facility	-7040
▁busy	-7041
▁recip	-7042
---	-7043
bow	-7044
▁McG	-7045
▁Ash	-7046
▁Blood	-7047
▁maximum	-7048
IB	-7049
▁lunch	-7050
ami	-7051
▁harder	-7052
▁carefully	-7053
▁HA	-7054
▁GR	-7055
▁milk	-7056
▁wash	-7057
▁poly	-7058
▁motion	-7059
▁exercise	-7060
▁Silver	-7061
▁suspect	-7062
makers	-7063
▁upload	-7064
▁Need	-7065
▁Point	-7066
▁PO	-7067
DC	-7068
weight	-7069
▁causing	-7070
▁prosecut	-7071
atell	-7072
▁privacy	-7073
urer	-7074
▁assistance	-7075
▁wins	-7076
▁subsid	-7077
▁Conserv	-7078
aos	-7079
eps	-7080
▁barely	-7081
▁dollar	-7082
azi	-7083
▁101	-7084
iveness	-7085
▁remaining	-7086
▁relatively	-7087
▁lucky	-7088
——	-7089
▁accompl	-7090
▁experts	-7091
▁Age	-7092
▁protocol	-7093
▁02	-7094
AME	-7095
▁duty	-7096
-11	-7097
▁bes	-7098
▁governments	-7099
sub	-7100
▁Deb	-7101
▁attached	-7102
▁bike	-7103
anes	-7104
▁unable	-7105
▁machines	-7106
▁colors	-7107
inent	-7108
▁keys	-7109
▁Coast	-7110
▁thick	-7111
teen	-7112
▁Sound	-7113
▁Jay	-7114
iti	-7115
▁crimes	-7116
aver	-7117
▁Radio	-7118
▁excited	-7119
▁doors	-7120
▁industrial	-7121
Get	-7122
fall	-7123
▁Jordan	-7124
▁holds	-7125
ho	-7126
aron	-7127
▁ren	-7128
▁deck	-7129
tting	-7130
▁6,	-7131
▁horse	-7132
▁drinking	-7133
("	-7134
ji	-7135
▁decre	-7136
escription	-7137
aire	-7138
▁Dream	-7139
▁Joseph	-7140
gery	-7141
▁API	-7142
▁reporter	-7143
▁Eth	-7144
▁reward	-7145
▁Hon	-7146
actor	-7147
▁talked	-7148
rous	-7149
ologist	-7150
▁finger	-7151
Hz	-7152
▁greatest	-7153
▁Ariz	-7154
▁Eastern	-7155
▁extract	-7156
▁Oak	-7157
▁Ever	-7158
▁smooth	-7159
▁heavily	-7160
▁tickets	-7161
▁shield	-7162
▁unw	-7163
▁Come	-7164
▁liberal	-7165
aders	-7166
▁quote	-7167
▁Braz	-7168
▁profit	-7169
▁scientists	-7170
ystem	-7171
▁Josh	-7172
▁vast	-7173
▁experiences	-7174
▁recommended	-7175
GO	-7176
aches	-7177
▁toler	-7178
wan	-7179
cs	-7180
ez	-7181
INE	-7182
rix	-7183
▁Kat	-7184
▁Prom	-7185
▁believes	-7186
don	-7187
▁opposed	-7188
▁66	-7189
asting	-7190
tion	-7191
▁Henry	-7192
ifies	-7193
▁shipping	-7194
▁Champions	-7195
▁jail	-7196
▁Lib	-7197
▁Hold	-7198
▁Series	-7199
▁Bal	-7200
▁1990	-7201
style	-7202
▁Finally	-7203
▁Bull	-7204
▁Italian	-7205
ICE	-7206
▁).	-7207
▁emails	-7208
KE	-7209
TE	-7210
▁cream	-7211
mn	-7212
▁cock	-7213
front	-7214
▁Spanish	-7215
▁younger	-7216
FO	-7217
umes	-7218
▁icon	-7219
▁lies	-7220
▁intent	-7221
▁authority	-7222
▁Vill	-7223
▁prote	-7224
Be	-7225
osm	-7226
.[	-7227
VD	-7228
▁excess	-7229
build	-7230
▁improved	-7231
sk	-7232
▁anymore	-7233
▁typical	-7234
▁distribution	-7235
osite	-7236
andy	-7237
Im	-7238
▁rape	-7239
▁rising	-7240
▁moments	-7241
rete	-7242
▁checking	-7243
ITY	-7244
▁emotional	-7245
▁bom	-7246
▁07	-7247
▁clock	-7248
▁religion	-7249
rot	-7250
▁constant	-7251
ram	-7252
▁Afghan	-7253
▁factors	-7254
▁Administ	-7255
▁protected	-7256
▁fairly	-7257
▁yield	-7258
▁campus	-7259
▁desire	-7260
▁pregn	-7261
▁occurred	-7262
▁estimated	-7263
aus	-7264
itchen	-7265
▁studio	-7266
▁nations	-7267
Up	-7268
▁Iron	-7269
GA	-7270
ounce	-7271
▁researchers	-7272
rug	-7273
igg	-7274
▁Lew	-7275
iy	-7276
ilty	-7277
▁attorney	-7278
annels	-7279
OB	-7280
Name	-7281
▁tables	-7282
9.	-7283
▁creation	-7284
6.	-7285
▁Nation	-7286
quir	-7287
▁Dallas	-7288
▁originally	-7289
▁enable	-7290
▁stun	-7291
▁tape	-7292
▁simpl	-7293
iration	-7294
▁Bry	-7295
▁Steven	-7296
▁Syrian	-7297
rives	-7298
▁walls	-7299
endment	-7300
▁causes	-7301
▁limits	-7302
utral	-7303
lder	-7304
▁era	-7305
▁sees	-7306
▁reaction	-7307
hell	-7308
▁Oregon	-7309
▁tox	-7310
▁lived	-7311
LD	-7312
▁propag	-7313
▁defined	-7314
▁trading	-7315
stal	-7316
▁locked	-7317
▁teacher	-7318
▁Hay	-7319
▁Notes	-7320
iac	-7321
▁adop	-7322
▁spokesman	-7323
▁resistance	-7324
▁Stone	-7325
▁repro	-7326
▁Queen	-7327
rison	-7328
ripts	-7329
elfare	-7330
file	-7331
oric	-7332
▁NAS	-7333
▁USB	-7334
▁Southern	-7335
▁inches	-7336
▁generated	-7337
dated	-7338
ptions	-7339
▁bub	-7340
▁Civil	-7341
▁rally	-7342
roit	-7343
rated	-7344
▁expression	-7345
ione	-7346
▁discussed	-7347
car	-7348
▁acid	-7349
cur	-7350
▁assume	-7351
owed	-7352
▁colon	-7353
▁Search	-7354
▁temperature	-7355
ensity	-7356
▁Saudi	-7357
▁determine	-7358
mate	-7359
▁III	-7360
▁Java	-7361
▁reporters	-7362
▁(5	-7363
umer	-7364
▁Ren	-7365
cut	-7366
othing	-7367
▁wave	-7368
▁activists	-7369
▁boat	-7370
inem	-7371
▁Hero	-7372
▁helpful	-7373
▁historical	-7374
▁Stephen	-7375
▁effectively	-7376
IGHT	-7377
▁saved	-7378
rence	-7379
▁screw	-7380
sch	-7381
atus	-7382
▁Cond	-7383
▁52	-7384
▁Unf	-7385
▁dinner	-7386
hot	-7387
ifier	-7388
▁east	-7389
▁centre	-7390
▁displ	-7391
▁grass	-7392
▁Fred	-7393
▁signing	-7394
▁Management	-7395
erts	-7396
▁Ho	-7397
▁Common	-7398
▁acting	-7399
ishment	-7400
▁Foreign	-7401
▁Front	-7402
▁lawyer	-7403
▁demands	-7404
▁HP	-7405
▁Miami	-7406
ugs	-7407
etime	-7408
▁Snow	-7409
▁Technology	-7410
▁convention	-7411
▁Short	-7412
▁serving	-7413
case	-7414
▁newspaper	-7415
▁profession	-7416
ille	-7417
▁regularly	-7418
▁Soft	-7419
utation	-7420
▁equival	-7421
▁resource	-7422
▁wra	-7423
▁Golden	-7424
scape	-7425
▁silver	-7426
▁threats	-7427
▁5.	-7428
iants	-7429
▁conducted	-7430
▁weekly	-7431
▁featured	-7432
ppers	-7433
▁winner	-7434
▁interface	-7435
▁involving	-7436
▁circumstances	-7437
▁identify	-7438
▁sorry	-7439
▁efficient	-7440
outube	-7441
▁capable	-7442
▁promote	-7443
▁explains	-7444
▁magn	-7445
▁explan	-7446
▁carbon	-7447
▁island	-7448
▁journey	-7449
▁Such	-7450
UE	-7451
▁Taylor	-7452
▁noticed	-7453
▁description	-7454
high	-7455
▁Pakistan	-7456
▁Block	-7457
▁cable	-7458
istration	-7459
ohn	-7460
▁combination	-7461
▁Ly	-7462
▁armed	-7463
▁invent	-7464
▁fraud	-7465
▁estate	-7466
ancer	-7467
▁2001	-7468
▁flex	-7469
▁saving	-7470
▁57	-7471
oz	-7472
▁Marc	-7473
▁performed	-7474
▁challenges	-7475
▁Ban	-7476
▁amounts	-7477
rate	-7478
▁Hop	-7479
.....	-7480
▁solutions	-7481
▁nearby	-7482
▁handling	-7483
▁2:	-7484
aret	-7485
▁Text	-7486
▁prime	-7487
▁Labour	-7488
icity	-7489
wich	-7490
berry	-7491
▁manual	-7492
▁possibility	-7493
-20	-7494
▁Li	-7495
itar	-7496
▁spaces	-7497
▁household	-7498
▁Load	-7499
eland	-7500
▁diagn	-7501
▁Disney	-7502
▁gaming	-7503
▁iPh	-7504
▁Using	-7505
▁Sav	-7506
4)	-7507
▁cam	-7508
aning	-7509
▁tries	-7510
spe	-7511
▁51	-7512
iler	-7513
cow	-7514
▁honor	-7515
orse	-7516
▁corruption	-7517
▁approval	-7518
▁mile	-7519
▁harass	-7520
▁medium	-7521
▁grew	-7522
bin	-7523
▁Irish	-7524
▁instr	-7525
▁Arizona	-7526
▁follows	-7527
amps	-7528
door	-7529
▁Tax	-7530
▁ourselves	-7531
▁module	-7532
▁administr	-7533
▁advertising	-7534
▁controlled	-7535
isp	-7536
angle	-7537
▁Know	-7538
▁77	-7539
▁finds	-7540
amental	-7541
ECT	-7542
▁Ten	-7543
▁250	-7544
ilton	-7545
▁pilot	-7546
▁external	-7547
▁somewhat	-7548
▁constantly	-7549
▁Moon	-7550
▁promise	-7551
▁recru	-7552
uted	-7553
▁bridge	-7554
▁academic	-7555
▁servers	-7556
▁sid	-7557
▁Mill	-7558
▁Georg	-7559
▁hyper	-7560
▁Without	-7561
endo	-7562
▁Sir	-7563
▁Imp	-7564
▁wed	-7565
found	-7566
▁10,	-7567
/10	-7568
▁ol	-7569
check	-7570
▁stab	-7571
▁upper	-7572
otten	-7573
rows	-7574
▁capture	-7575
print	-7576
▁Academ	-7577
▁stands	-7578
olis	-7579
▁dust	-7580
▁Mother	-7581
▁recording	-7582
▁brut	-7583
▁adult	-7584
▁Turkey	-7585
apse	-7586
▁inject	-7587
OUR	-7588
▁Anth	-7589
▁Tech	-7590
AGE	-7591
▁sym	-7592
▁dict	-7593
▁answers	-7594
▁Lind	-7595
▁imper	-7596
▁attempted	-7597
chain	-7598
▁Would	-7599
pret	-7600
62	-7601
▁09	-7602
geon	-7603
covery	-7604
▁emphas	-7605
▁$4	-7606
▁tea	-7607
reedom	-7608
▁ancient	-7609
▁returning	-7610
▁bitcoin	-7611
▁scheduled	-7612
▁blame	-7613
▁Bi	-7614
uable	-7615
▁exhib	-7616
ASE	-7617
57	-7618
▁shr	-7619
ethod	-7620
▁stone	-7621
▁confident	-7622
worth	-7623
bec	-7624
▁Labor	-7625
▁prohib	-7626
utter	-7627
▁CNN	-7628
▁lol	-7629
▁claiming	-7630
▁payments	-7631
ARD	-7632
▁kil	-7633
▁exposure	-7634
cript	-7635
ernel	-7636
▁nobody	-7637
▁Map	-7638
With	-7639
writ	-7640
▁Jason	-7641
{"	-7642
▁7,	-7643
▁titles	-7644
▁frequently	-7645
▁admitted	-7646
▁Jam	-7647
▁informed	-7648
▁Major	-7649
▁Jersey	-7650
▁MA	-7651
▁(2	-7652
▁EV	-7653
url	-7654
ulator	-7655
▁substant	-7656
▁investors	-7657
▁Bul	-7658
▁gal	-7659
▁injured	-7660
ibilities	-7661
▁:)	-7662
cling	-7663
▁signal	-7664
▁Brazil	-7665
asted	-7666
▁Wolf	-7667
▁wet	-7668
▁fasc	-7669
▁gent	-7670
▁Saf	-7671
▁pounds	-7672
▁),	-7673
▁Patrick	-7674
REE	-7675
ingers	-7676
▁Intel	-7677
▁Indust	-7678
▁announcement	-7679
oup	-7680
ignment	-7681
▁LA	-7682
▁Cruz	-7683
▁vend	-7684
code	-7685
▁BBC	-7686
▁coc	-7687
▁stretch	-7688
▁enabled	-7689
▁falling	-7690
▁Da	-7691
ensus	-7692
illance	-7693
heel	-7694
▁competitive	-7695
itarian	-7696
▁processing	-7697
▁ignore	-7698
▁phen	-7699
▁raising	-7700
OME	-7701
▁Moore	-7702
▁Austin	-7703
▁Children	-7704
▁colleagues	-7705
▁cm	-7706
▁Est	-7707
▁regional	-7708
▁troops	-7709
Time	-7710
FA	-7711
outing	-7712
▁Requ	-7713
▁regime	-7714
▁Ba	-7715
▁ingred	-7716
▁Further	-7717
▁artists	-7718
▁guest	-7719
▁reveal	-7720
oded	-7721
▁visible	-7722
po	-7723
aws	-7724
▁fruit	-7725
▁sharp	-7726
▁ads	-7727
▁tort	-7728
▁portion	-7729
▁loop	-7730
arrass	-7731
▁upgrade	-7732
▁confront	-7733
▁Through	-7734
ints	-7735
▁Change	-7736
idelines	-7737
▁rating	-7738
▁cig	-7739
▁tall	-7740
▁Ire	-7741
backs	-7742
rical	-7743
▁surprised	-7744
orough	-7745
▁offices	-7746
▁extensive	-7747
idth	-7748
▁comparison	-7749
▁8,	-7750
▁unus	-7751
▁stim	-7752
▁buck	-7753
pson	-7754
▁bonus	-7755
▁Defense	-7756
▁rom	-7757
▁sne	-7758
▁goods	-7759
▁contracts	-7760
▁gift	-7761
▁dance	-7762
▁enthus	-7763
eting	-7764
▁WITH	-7765
▁Return	-7766
▁shopping	-7767
isting	-7768
▁shouldn	-7769
▁depending	-7770
▁matches	-7771
▁Left	-7772
▁chapter	-7773
izza	-7774
▁Viet	-7775
▁Should	-7776
▁expansion	-7777
ferences	-7778
sea	-7779
▁tracks	-7780
▁purchased	-7781
▁county	-7782
user	-7783
▁ESP	-7784
▁FO	-7785
clude	-7786
▁Phys	-7787
▁cheese	-7788
▁remark	-7789
▁listening	-7790
ington	-7791
ipedia	-7792
▁angry	-7793
▁Speed	-7794
▁strip	-7795
▁Sever	-7796
▁essentially	-7797
▁IC	-7798
▁adapt	-7799
▁plane	-7800
▁Select	-7801
▁58	-7802
wind	-7803
American	-7804
BO	-7805
▁tips	-7806
▁Corpor	-7807
▁»	-7808
start	-7809
▁entered	-7810
inson	-7811
▁refugees	-7812
▁Dest	-7813
▁successfully	-7814
▁communication	-7815
ras	-7816
▁ft	-7817
▁thrown	-7818
Donald	-7819
cts	-7820
size	-7821
▁tons	-7822
esters	-7823
itals	-7824
▁occas	-7825
▁Cry	-7826
▁stats	-7827
▁architect	-7828
PP	-7829
▁opens	-7830
alling	-7831
uma	-7832
▁FL	-7833
rets	-7834
▁champions	-7835
▁Imm	-7836
comes	-7837
▁multip	-7838
▁regulations	-7839
▁brown	-7840
▁gif	-7841
▁(201	-7842
▁??	-7843
▁Qual	-7844
ocolate	-7845
TF	-7846
▁sty	-7847
▁Square	-7848
▁Jenn	-7849
istent	-7850
zens	-7851
itary	-7852
▁Vegas	-7853
▁transition	-7854
▁File	-7855
▁Centre	-7856
▁Room	-7857
▁2002	-7858
▁album	-7859
▁denied	-7860
▁philosoph	-7861
▁Kelly	-7862
iece	-7863
▁alongside	-7864
▁allegedly	-7865
ync	-7866
▁scan	-7867
▁squad	-7868
▁doctors	-7869
▁53	-7870
▁websites	-7871
▁promised	-7872
▁acknowled	-7873
▁loud	-7874
▁immediate	-7875
93	-7876
▁User	-7877
▁detailed	-7878
▁scenes	-7879
▁edition	-7880
link	-7881
len	-7882
▁Ted	-7883
▁bits	-7884
▁errors	-7885
▁56	-7886
Cont	-7887
▁Cro	-7888
▁consumer	-7889
▁twenty	-7890
▁warned	-7891
▁sample	-7892
▁Buff	-7893
izon	-7894
▁sugar	-7895
▁SW	-7896
▁accomp	-7897
pan	-7898
▁Pen	-7899
amber	-7900
▁throwing	-7901
▁''	-7902
▁maps	-7903
olds	-7904
▁Football	-7905
How	-7906
▁Pict	-7907
▁consumers	-7908
▁papers	-7909
▁violent	-7910
▁phones	-7911
▁bars	-7912
ASS	-7913
▁fur	-7914
▁kinds	-7915
err	-7916
▁Tro	-7917
▁properties	-7918
▁ships	-7919
▁mining	-7920
inos	-7921
▁category	-7922
▁swim	-7923
▁CIA	-7924
▁Works	-7925
taining	-7926
▁54	-7927
hr	-7928
▁marks	-7929
▁Bud	-7930
▁recovery	-7931
▁increases	-7932
▁drunk	-7933
▁adults	-7934
sex	-7935
▁personally	-7936
▁Intro	-7937
oop	-7938
quarters	-7939
EP	-7940
MC	-7941
▁Captain	-7942
▁fir	-7943
▁advis	-7944
▁burning	-7945
aska	-7946
▁Rac	-7947
▁tent	-7948
▁hitting	-7949
▁downtown	-7950
▁Inv	-7951
▁revenue	-7952
inst	-7953
END	-7954
▁spots	-7955
▁marked	-7956
https	-7957
izard	-7958
▁films	-7959
▁gro	-7960
base	-7961
isan	-7962
▁Move	-7963
▁casual	-7964
▁currency	-7965
%)	-7966
▁AI	-7967
▁agenda	-7968
▁perspective	-7969
oval	-7970
▁fool	-7971
▁Broad	-7972
▁registered	-7973
▁warn	-7974
▁entit	-7975
▁tournament	-7976
▁programming	-7977
En	-7978
▁MO	-7979
▁blank	-7980
ige	-7981
▁Aw	-7982
▁married	-7983
▁joy	-7984
▁ideal	-7985
▁contest	-7986
whel	-7987
gorith	-7988
▁grade	-7989
▁songs	-7990
▁Local	-7991
▁1980	-7992
▁bid	-7993
▁Senator	-7994
BL	-7995
▁drawing	-7996
▁wonderful	-7997
▁GT	-7998
▁river	-7999
▁sheet	-8000
▁Cra	-8001
▁atm	-8002
▁bin	-8003
▁Tele	-8004
▁recon	-8005
61	-8006
One	-8007
▁BY	-8008
▁ruling	-8009
▁perfectly	-8010
▁lets	-8011
▁branch	-8012
ikipedia	-8013
▁67	-8014
Ad	-8015
▁admin	-8016
tit	-8017
▁embr	-8018
▁Member	-8019
▁illustr	-8020
▁PA	-8021
▁innoc	-8022
▁percentage	-8023
▁Detroit	-8024
▁acceler	-8025
▁declared	-8026
▁entr	-8027
▁11,	-8028
▁coordin	-8029
sels	-8030
▁Spr	-8031
▁Tour	-8032
▁trib	-8033
▁wake	-8034
▁seasons	-8035
▁unn	-8036
commod	-8037
▁Sov	-8038
▁bow	-8039
▁covers	-8040
8.	-8041
▁poison	-8042
▁Psych	-8043
MP	-8044
rooms	-8045
▁joke	-8046
▁URL	-8047
▁Related	-8048
▁journalists	-8049
dev	-8050
▁TE	-8051
▁driven	-8052
▁Guide	-8053
▁tonight	-8054
▁channels	-8055
▁Kent	-8056
▁clothes	-8057
itual	-8058
▁teachers	-8059
▁Buy	-8060
▁cra	-8061
▁les	-8062
▁repair	-8063
js	-8064
▁pa	-8065
▁Nic	-8066
▁noise	-8067
▁interviews	-8068
▁shares	-8069
▁Standard	-8070
▁protests	-8071
▁Iss	-8072
td	-8073
▁sought	-8074
▁priority	-8075
▁opponents	-8076
seless	-8077
▁FC	-8078
▁merely	-8079
▁immigrants	-8080
▁Small	-8081
▁Summer	-8082
itionally	-8083
▁breath	-8084
▁nights	-8085
▁authors	-8086
count	-8087
▁uniform	-8088
▁extension	-8089
▁bure	-8090
▁Judge	-8091
▁stops	-8092
▁72	-8093
▁salt	-8094
▁shock	-8095
▁writers	-8096
63	-8097
mes	-8098
▁600	-8099
▁rear	-8100
▁destroyed	-8101
▁maintenance	-8102
▁05	-8103
pack	-8104
▁annoy	-8105
▁Unfortunately	-8106
uine	-8107
▁Catholic	-8108
▁seed	-8109
▁democracy	-8110
▁Som	-8111
▁boxes	-8112
▁Ast	-8113
erk	-8114
▁situations	-8115
?'	-8116
▁compens	-8117
▁congress	-8118
▁lady	-8119
▁12,	-8120
gener	-8121
▁participate	-8122
▁Final	-8123
▁newly	-8124
ONE	-8125
owder	-8126
▁privile	-8127
▁Building	-8128
CR	-8129
▁exit	-8130
▁tracking	-8131
▁passion	-8132
▁sustain	-8133
▁Professor	-8134
▁bills	-8135
▁Medical	-8136
AST	-8137
▁Fast	-8138
▁proposal	-8139
▁vice	-8140
▁loose	-8141
▁permanent	-8142
isa	-8143
ira	-8144
▁drawn	-8145
▁butter	-8146
esty	-8147
▁offense	-8148
▁persons	-8149
good	-8150
▁kit	-8151
▁phr	-8152
▁Drive	-8153
▁injuries	-8154
▁Ath	-8155
▁replacement	-8156
▁baseball	-8157
fol	-8158
▁tut	-8159
▁Northern	-8160
▁generate	-8161
emen	-8162
▁Six	-8163
▁ML	-8164
▁org	-8165
▁banned	-8166
mind	-8167
▁Cas	-8168
angel	-8169
ennis	-8170
▁liquid	-8171
HA	-8172
▁retire	-8173
iper	-8174
▁acts	-8175
▁taught	-8176
▁gotten	-8177
▁bottle	-8178
By	-8179
▁Things	-8180
▁Bow	-8181
▁phase	-8182
cm	-8183
aki	-8184
▁9,	-8185
▁Royal	-8186
▁Number	-8187
▁credits	-8188
▁suffering	-8189
test	-8190
plus	-8191
▁bat	-8192
zing	-8193
▁Comb	-8194
▁stack	-8195
▁weigh	-8196
▁intellect	-8197
▁subsequ	-8198
Not	-8199
▁sacr	-8200
▁apartment	-8201
▁wars	-8202
usal	-8203
▁Blog	-8204
▁Staff	-8205
▁terrible	-8206
icked	-8207
▁counsel	-8208
▁surrounding	-8209
▁Lu	-8210
atre	-8211
▁releases	-8212
▁1.5	-8213
▁Pit	-8214
▁thin	-8215
▁Ros	-8216
▁||	-8217
odge	-8218
raid	-8219
▁2.0	-8220
▁confidence	-8221
▁04	-8222
▁Der	-8223
▁comic	-8224
▁50%	-8225
▁Muslims	-8226
▁Flash	-8227
▁SD	-8228
▁Profile	-8229
▁($	-8230
▁Rus	-8231
▁MORE	-8232
94	-8233
▁Digital	-8234
▁worldwide	-8235
she	-8236
▁Emer	-8237
▁Mu	-8238
gate	-8239
▁NBA	-8240
▁insert	-8241
IES	-8242
▁Farm	-8243
▁Steel	-8244
▁Credit	-8245
▁targeted	-8246
▁McK	-8247
▁Contact	-8248
ppy	-8249
▁SO	-8250
ci	-8251
dem	-8252
▁iPhone	-8253
▁employee	-8254
▁Pur	-8255
▁neighb	-8256
▁choices	-8257
▁troub	-8258
▁racist	-8259
▁elsewhere	-8260
/1	-8261
rolled	-8262
▁factory	-8263
Id	-8264
▁AA	-8265
▁---	-8266
uccess	-8267
Type	-8268
▁Remember	-8269
▁accurate	-8270
▁employment	-8271
▁anx	-8272
▁Writ	-8273
osphere	-8274
▁twitter	-8275
▁components	-8276
▁worker	-8277
▁division	-8278
▁constit	-8279
yard	-8280
▁Roy	-8281
▁Sure	-8282
▁bags	-8283
▁homeless	-8284
▁comfortable	-8285
▁alter	-8286
rett	-8287
▁terrorist	-8288
IZ	-8289
urers	-8290
▁therefore	-8291
Star	-8292
orne	-8293
▁wine	-8294
employ	-8295
▁faced	-8296
▁rooms	-8297
▁village	-8298
ingu	-8299
oting	-8300
▁Version	-8301
▁(0	-8302
▁Sometimes	-8303
IME	-8304
resents	-8305
▁significantly	-8306
▁passes	-8307
▁everyday	-8308
▁relative	-8309
▁Season	-8310
▁copyright	-8311
▁Balt	-8312
▁Money	-8313
▁instructions	-8314
oda	-8315
▁Capital	-8316
eries	-8317
arc	-8318
opher	-8319
▁Bowl	-8320
▁Agency	-8321
▁territory	-8322
▁entertainment	-8323
erg	-8324
mad	-8325
▁Section	-8326
\/	-8327
▁searching	-8328
▁Ven	-8329
▁strict	-8330
month	-8331
▁arrive	-8332
▁Ireland	-8333
▁resulting	-8334
▁na	-8335
etary	-8336
oenix	-8337
bi	-8338
▁inch	-8339
▁Round	-8340
▁plain	-8341
▁dad	-8342
▁survive	-8343
▁containing	-8344
▁3-	-8345
▁pink	-8346
7.	-8347
unity	-8348
▁node	-8349
▁2014,	-8350
▁criticism	-8351
aved	-8352
Ind	-8353
▁Rh	-8354
cor	-8355
▁Nothing	-8356
▁detect	-8357
▁campaigns	-8358
px	-8359
offs	-8360
▁frag	-8361
▁journalist	-8362
▁sufficient	-8363
▁Hum	-8364
rimination	-8365
▁Mind	-8366
-15	-8367
aco	-8368
▁moon	-8369
▁discount	-8370
inch	-8371
supp	-8372
▁Az	-8373
▁consistent	-8374
Qu	-8375
▁Avenue	-8376
▁versus	-8377
▁implementation	-8378
▁IV	-8379
▁perpet	-8380
Se	-8381
ali	-8382
orious	-8383
▁walked	-8384
▁06	-8385
▁Sab	-8386
▁Gary	-8387
▁hung	-8388
▁behalf	-8389
▁sentence	-8390
igrant	-8391
▁Zeal	-8392
▁chose	-8393
▁affili	-8394
▁Ukraine	-8395
owa	-8396
rior	-8397
▁15,	-8398
▁chosen	-8399
▁Had	-8400
aneous	-8401
SL	-8402
▁threatened	-8403
asant	-8404
▁equivalent	-8405
▁Mom	-8406
▁Division	-8407
▁Lyn	-8408
▁Fig	-8409
▁founder	-8410
▁clubs	-8411
▁Store	-8412
▁comprom	-8413
IAL	-8414
▁800	-8415
▁relationships	-8416
inging	-8417
▁guilty	-8418
▁Stock	-8419
▁hired	-8420
▁Crit	-8421
▁seats	-8422
▁GU	-8423
▁disag	-8424
▁cameras	-8425
▁connections	-8426
-01	-8427
▁20,	-8428
after	-8429
▁pocket	-8430
▁Connect	-8431
▁attacked	-8432
▁raid	-8433
92	-8434
▁BB	-8435
▁legs	-8436
▁stations	-8437
▁Mrs	-8438
heast	-8439
▁ghost	-8440
▁earned	-8441
omy	-8442
path	-8443
▁thro	-8444
▁stood	-8445
▁teaching	-8446
▁Bron	-8447
▁ethn	-8448
▁ele	-8449
▁struck	-8450
▁mistake	-8451
▁survival	-8452
▁fundamental	-8453
oming	-8454
▁Putin	-8455
▁Palestinian	-8456
▁intention	-8457
▁Hospital	-8458
▁Ak	-8459
▁airport	-8460
▁Turk	-8461
▁overse	-8462
olen	-8463
▁cabin	-8464
▁roof	-8465
▁fantasy	-8466
▁shoes	-8467
ultural	-8468
▁electronic	-8469
ihad	-8470
letter	-8471
▁Model	-8472
▁UP	-8473
▁echo	-8474
▁Trust	-8475
▁withdraw	-8476
AV	-8477
▁beach	-8478
iversary	-8479
mers	-8480
shot	-8481
▁embarrass	-8482
▁secretary	-8483
▁obst	-8484
▁Bra	-8485
▁Son	-8486
▁wise	-8487
▁configuration	-8488
▁holiday	-8489
▁worried	-8490
▁Chapter	-8491
▁Hi	-8492
▁voted	-8493
screen	-8494
▁directed	-8495
riers	-8496
▁alien	-8497
▁Marsh	-8498
agg	-8499
▁Trade	-8500
db	-8501
▁spark	-8502
arms	-8503
▁Mah	-8504
imental	-8505
▁Smart	-8506
▁fault	-8507
▁Attorney	-8508
▁processes	-8509
][	-8510
▁Moscow	-8511
▁whenever	-8512
▁</	-8513
▁Nav	-8514
▁Future	-8515
▁closely	-8516
▁repeatedly	-8517
300	-8518
▁Scient	-8519
▁techniques	-8520
phia	-8521
▁normally	-8522
▁Bang	-8523
ICK	-8524
▁describe	-8525
gun	-8526
▁assistant	-8527
▁participants	-8528
▁Area	-8529
nesota	-8530
▁hanging	-8531
▁respective	-8532
arth	-8533
▁Place	-8534
▁roads	-8535
▁Dog	-8536
▁mainstream	-8537
▁franch	-8538
▁surveillance	-8539
others	-8540
vity	-8541
merce	-8542
▁Think	-8543
▁differences	-8544
▁Las	-8545
▁consumption	-8546
▁jun	-8547
▁Budd	-8548
▁permission	-8549
▁grant	-8550
App	-8551
▁struggle	-8552
▁Kong	-8553
▁Environment	-8554
atar	-8555
▁ignored	-8556
▁je	-8557
▁HERE	-8558
▁Break	-8559
▁Edition	-8560
▁2013,	-8561
▁succeed	-8562
▁deaths	-8563
axy	-8564
▁Former	-8565
▁reads	-8566
des	-8567
▁responses	-8568
▁minds	-8569
▁Fant	-8570
▁Spir	-8571
▁damn	-8572
▁terr	-8573
abis	-8574
▁asks	-8575
▁sin	-8576
▁Comments	-8577
▁conscious	-8578
▁structures	-8579
agers	-8580
▁urban	-8581
emed	-8582
orous	-8583
▁importance	-8584
▁accommod	-8585
lar	-8586
days	-8587
fish	-8588
ensed	-8589
▁gate	-8590
ributes	-8591
▁chicken	-8592
▁seemingly	-8593
▁Lady	-8594
▁exch	-8595
▁hal	-8596
▁sed	-8597
grade	-8598
▁Cooper	-8599
▁shadow	-8600
▁warrant	-8601
▁Esp	-8602
block	-8603
▁Chair	-8604
▁grown	-8605
VP	-8606
ece	-8607
▁Gro	-8608
▁liked	-8609
map	-8610
▁perce	-8611
▁welfare	-8612
▁tub	-8613
▁wanting	-8614
ourse	-8615
rection	-8616
▁visited	-8617
▁neither	-8618
▁developer	-8619
mann	-8620
▁mic	-8621
athers	-8622
making	-8623
▁caps	-8624
istle	-8625
piracy	-8626
iscons	-8627
▁implemented	-8628
▁copies	-8629
▁Independ	-8630
▁chart	-8631
▁RT	-8632
▁tiss	-8633
▁essential	-8634
made	-8635
▁ISIS	-8636
through	-8637
▁Joined	-8638
▁Inn	-8639
▁represents	-8640
▁admit	-8641
▁exem	-8642
▁shops	-8643
▁precise	-8644
▁narrative	-8645
▁monitoring	-8646
uced	-8647
▁mask	-8648
▁Could	-8649
pace	-8650
▁platforms	-8651
▁Past	-8652
▁inher	-8653
illiant	-8654
▁engineering	-8655
▁exha	-8656
▁vary	-8657
▁Dub	-8658
▁Fem	-8659
itches	-8660
zo	-8661
▁stead	-8662
▁Mountain	-8663
enter	-8664
▁basketball	-8665
▁EC	-8666
isconsin	-8667
▁trained	-8668
▁terrorism	-8669
▁fed	-8670
press	-8671
▁synth	-8672
▁organized	-8673
ieties	-8674
▁landing	-8675
▁responded	-8676
UG	-8677
pat	-8678
▁arguments	-8679
/2	-8680
MB	-8681
ogether	-8682
▁reader	-8683
▁(200	-8684
At	-8685
Me	-8686
▁dozens	-8687
▁cant	-8688
▁widely	-8689
▁exclusive	-8690
5.	-8691
▁math	-8692
▁Better	-8693
RA	-8694
▁Band	-8695
▁pray	-8696
▁reasonable	-8697
▁existence	-8698
ATCH	-8699
▁Eag	-8700
▁tie	-8701
▁myth	-8702
▁outf	-8703
▁Channel	-8704
▁amid	-8705
▁pill	-8706
▁Double	-8707
▁Du	-8708
><	-8709
▁68	-8710
low	-8711
▁DI	-8712
▁Fight	-8713
▁Kr	-8714
▁Cut	-8715
▁Station	-8716
may	-8717
▁semi	-8718
▁domain	-8719
▁rolling	-8720
▁captured	-8721
▁dates	-8722
iah	-8723
oga	-8724
▁fo	-8725
▁Less	-8726
▁cruc	-8727
▁commitment	-8728
dam	-8729
▁champion	-8730
▁Comput	-8731
div	-8732
▁98	-8733
ifest	-8734
▁manner	-8735
▁DJ	-8736
▁Five	-8737
▁failing	-8738
▁Cho	-8739
▁loaded	-8740
▁Perform	-8741
dep	-8742
▁Beh	-8743
▁Pers	-8744
working	-8745
▁allies	-8746
▁letting	-8747
▁tap	-8748
bie	-8749
ounced	-8750
uild	-8751
▁Own	-8752
▁tanks	-8753
▁console	-8754
▁BC	-8755
▁engaged	-8756
▁consequences	-8757
ni	-8758
▁Conference	-8759
rac	-8760
▁reduction	-8761
stery	-8762
▁sensitive	-8763
pen	-8764
▁Howard	-8765
ui	-8766
ila	-8767
▁lying	-8768
▁Freedom	-8769
▁Minnesota	-8770
▁exception	-8771
▁riding	-8772
▁anticip	-8773
▁findings	-8774
▁Bear	-8775
▁null	-8776
▁Rain	-8777
▁Toy	-8778
▁dub	-8779
▁extrem	-8780
Of	-8781
▁nose	-8782
▁adopt	-8783
▁mountain	-8784
▁***	-8785
▁orient	-8786
▁Everyone	-8787
▁Bruce	-8788
adelphia	-8789
py	-8790
Or	-8791
▁circle	-8792
▁$50	-8793
▁realized	-8794
arma	-8795
trans	-8796
▁symbol	-8797
▁Location	-8798
igen	-8799
▁struggling	-8800
img	-8801
▁&&	-8802
▁88	-8803
php	-8804
▁shame	-8805
▁monthly	-8806
▁Mun	-8807
chant	-8808
▁rescue	-8809
▁Much	-8810
▁ramp	-8811
▁veteran	-8812
▁patterns	-8813
▁Unt	-8814
uy	-8815
▁appreciate	-8816
▁Tok	-8817
▁regions	-8818
HS	-8819
▁visitors	-8820
▁communications	-8821
endar	-8822
/12	-8823
agh	-8824
▁Sant	-8825
▁vacc	-8826
profit	-8827
▁Product	-8828
▁Consider	-8829
▁1999	-8830
▁Deep	-8831
▁incent	-8832
▁orange	-8833
▁Sug	-8834
rolling	-8835
▁prepare	-8836
▁printed	-8837
▁typically	-8838
cat	-8839
▁mirror	-8840
▁BM	-8841
▁Gam	-8842
arded	-8843
▁attended	-8844
▁racial	-8845
aga	-8846
shit	-8847
▁encourage	-8848
oker	-8849
▁THAT	-8850
▁2012,	-8851
▁Quick	-8852
72	-8853
▁Syd	-8854
orship	-8855
▁closing	-8856
lib	-8857
▁Fa	-8858
▁Allen	-8859
▁Storm	-8860
▁defeat	-8861
▁granted	-8862
▁$20	-8863
▁Var	-8864
▁Barack	-8865
▁Having	-8866
▁Stadium	-8867
umble	-8868
▁disabled	-8869
▁providers	-8870
▁SN	-8871
▁Zero	-8872
▁surgery	-8873
▁Ross	-8874
▁hash	-8875
eling	-8876
▁Added	-8877
amework	-8878
▁Hey	-8879
▁algorith	-8880
▁behaviour	-8881
▁Cher	-8882
RC	-8883
▁pupp	-8884
▁react	-8885
▁Walker	-8886
fund	-8887
▁cir	-8888
▁Sean	-8889
aturally	-8890
▁handed	-8891
Rep	-8892
ashes	-8893
layer	-8894
▁suffered	-8895
IO	-8896
aha	-8897
▁Jere	-8898
▁producer	-8899
data	-8900
▁references	-8901
QU	-8902
▁Cann	-8903
▁vert	-8904
▁advertis	-8905
Pl	-8906
news	-8907
▁eggs	-8908
▁yard	-8909
▁logic	-8910
▁nin	-8911
▁Among	-8912
▁sympt	-8913
▁collected	-8914
DE	-8915
▁Steam	-8916
olves	-8917
▁Alab	-8918
▁scored	-8919
icket	-8920
▁2015,	-8921
▁Harris	-8922
▁boards	-8923
▁2.5	-8924
▁snap	-8925
▁loves	-8926
ordon	-8927
zed	-8928
▁loan	-8929
▁Manager	-8930
▁initially	-8931
?!	-8932
atched	-8933
▁spray	-8934
▁graphics	-8935
OCK	-8936
▁Georgia	-8937
oft	-8938
▁1970	-8939
hard	-8940
iscal	-8941
ushed	-8942
▁Third	-8943
otion	-8944
▁deeply	-8945
▁MC	-8946
▁joining	-8947
▁cops	-8948
▁adj	-8949
▁ties	-8950
bridge	-8951
▁formed	-8952
▁Andre	-8953
▁Ghost	-8954
▁corrupt	-8955
▁0.	-8956
▁62	-8957
▁Hong	-8958
ouver	-8959
▁Chall	-8960
-19	-8961
▁repeat	-8962
▁Wisconsin	-8963
pse	-8964
osexual	-8965
▁exists	-8966
bound	-8967
ancial	-8968
FT	-8969
Wor	-8970
flow	-8971
▁Opp	-8972
▁loading	-8973
▁Save	-8974
master	-8975
▁Officer	-8976
▁personnel	-8977
Fr	-8978
▁Origin	-8979
isons	-8980
IX	-8981
bage	-8982
eller	-8983
▁Being	-8984
stop	-8985
▁stake	-8986
▁accompan	-8987
▁movements	-8988
▁190	-8989
blog	-8990
▁roc	-8991
▁Romney	-8992
apher	-8993
imore	-8994
▁dude	-8995
▁bother	-8996
azy	-8997
▁Holy	-8998
▁alert	-8999
▁outs	-9000
▁wrest	-9001
▁featuring	-9002
▁officially	-9003
Col	-9004
▁glad	-9005
▁Gil	-9006
▁Cow	-9007
▁forest	-9008
▁packages	-9009
▁78	-9010
▁counts	-9011
allel	-9012
woman	-9013
▁Bridge	-9014
▁rounds	-9015
▁shirt	-9016
▁solve	-9017
▁Anderson	-9018
▁Given	-9019
▁drops	-9020
▁MD	-9021
▁Jews	-9022
▁valuable	-9023
ped	-9024
▁Obs	-9025
▁lands	-9026
▁Columbia	-9027
▁kicked	-9028
▁Zealand	-9029
▁regardless	-9030
card	-9031
quis	-9032
▁referred	-9033
▁dumb	-9034
including	-9035
▁dirty	-9036
▁exciting	-9037
▁overwhel	-9038
Fi	-9039
▁peak	-9040
▁Portland	-9041
market	-9042
▁beauty	-9043
▁headed	-9044
▁shortly	-9045
▁agric	-9046
▁drives	-9047
▁relief	-9048
burn	-9049
FS	-9050
▁Brew	-9051
▁wing	-9052
Int	-9053
▁anybody	-9054
▁Made	-9055
▁Pa	-9056
atin	-9057
▁compreh	-9058
▁genuine	-9059
jo	-9060
▁Kick	-9061
iano	-9062
▁Fat	-9063
▁obser	-9064
▁condem	-9065
▁armor	-9066
▁Winter	-9067
▁organic	-9068
▁Ca	-9069
▁Table	-9070
▁finance	-9071
▁bread	-9072
▁monster	-9073
▁destruction	-9074
▁Hur	-9075
burgh	-9076
har	-9077
▁layer	-9078
▁funded	-9079
▁western	-9080
icop	-9081
▁roles	-9082
▁colour	-9083
▁requested	-9084
▁Lic	-9085
eness	-9086
otype	-9087
▁explicit	-9088
▁continuing	-9089
▁dying	-9090
▁affairs	-9091
▁""	-9092
iley	-9093
ouses	-9094
▁lawsuit	-9095
▁bugs	-9096
▁centers	-9097
▁Too	-9098
stract	-9099
▁Prince	-9100
▁incorpor	-9101
eda	-9102
▁Democrat	-9103
▁CB	-9104
rics	-9105
▁array	-9106
▁pit	-9107
▁encounter	-9108
▁controversial	-9109
▁ms	-9110
▁yeah	-9111
▁1)	-9112
igate	-9113
▁birthday	-9114
▁....	-9115
▁statistics	-9116
archy	-9117
▁pulling	-9118
▁Must	-9119
▁risks	-9120
▁prepar	-9121
▁Several	-9122
▁habit	-9123
▁ocean	-9124
▁backup	-9125
▁interpret	-9126
▁expectations	-9127
▁Ta	-9128
▁neutral	-9129
▁recipe	-9130
▁holes	-9131
▁Denver	-9132
▁creates	-9133
▁correctly	-9134
▁reportedly	-9135
▁stere	-9136
▁poster	-9137
▁drama	-9138
▁Everything	-9139
QL	-9140
will	-9141
▁scenario	-9142
ika	-9143
▁WOR	-9144
▁assigned	-9145
/4	-9146
▁es	-9147
▁recall	-9148
▁ingredients	-9149
▁Lam	-9150
▁puzz	-9151
▁northern	-9152
uties	-9153
ells	-9154
abe	-9155
▁mainly	-9156
inge	-9157
▁Mars	-9158
brid	-9159
▁Gun	-9160
▁frustr	-9161
▁Impro	-9162
▁participation	-9163
▁assert	-9164
▁Express	-9165
▁Kingdom	-9166
▁Stop	-9167
▁Anton	-9168
▁Editor	-9169
Data	-9170
▁Country	-9171
▁supplies	-9172
▁visiting	-9173
▁Want	-9174
▁scoring	-9175
▁Protection	-9176
sem	-9177
engers	-9178
▁rarely	-9179
▁Roberts	-9180
anguage	-9181
▁180	-9182
▁purs	-9183
▁protein	-9184
▁samples	-9185
hour	-9186
▁extent	-9187
▁opponent	-9188
ulus	-9189
▁symp	-9190
▁reven	-9191
▁arrang	-9192
▁Anti	-9193
bles	-9194
avell	-9195
▁Philadelphia	-9196
▁inner	-9197
▁Matthew	-9198
▁medicine	-9199
river	-9200
▁obsc	-9201
PT	-9202
▁30,	-9203
ancouver	-9204
54	-9205
Do	-9206
▁11:	-9207
▁Kansas	-9208
▁covering	-9209
▁observed	-9210
▁vet	-9211
▁Auto	-9212
▁Edward	-9213
▁Shadow	-9214
▁authent	-9215
ACT	-9216
lah	-9217
▁Prim	-9218
▁grid	-9219
▁Alabama	-9220
▁Charlie	-9221
open	-9222
▁Alexander	-9223
▁technologies	-9224
▁checked	-9225
zone	-9226
▁Mov	-9227
▁loyal	-9228
▁stable	-9229
▁Gov	-9230
acker	-9231
▁relax	-9232
▁improvements	-9233
▁fet	-9234
')	-9235
.]	-9236
▁Anim	-9237
▁toss	-9238
▁Soviet	-9239
ela	-9240
▁Article	-9241
▁69	-9242
agic	-9243
▁Fro	-9244
########	-9245
▁Justin	-9246
▁serves	-9247
▁addresses	-9248
inois	-9249
▁Whit	-9250
▁scar	-9251
▁OUT	-9252
▁Mail	-9253
▁cooking	-9254
ULL	-9255
▁Hope	-9256
▁deliber	-9257
aman	-9258
MENT	-9259
▁Sus	-9260
▁scores	-9261
▁intr	-9262
ahoo	-9263
eria	-9264
gets	-9265
week	-9266
▁satell	-9267
▁submitted	-9268
▁virtually	-9269
acco	-9270
fare	-9271
▁restrictions	-9272
▁chest	-9273
▁fishing	-9274
▁computers	-9275
▁obtained	-9276
▁scholars	-9277
▁YOUR	-9278
▁awareness	-9279
kg	-9280
version	-9281
COM	-9282
▁Museum	-9283
▁presum	-9284
▁chairman	-9285
▁MB	-9286
▁belief	-9287
▁Heart	-9288
▁sessions	-9289
lem	-9290
▁Fel	-9291
▁1,000	-9292
▁flags	-9293
▁strongly	-9294
▁Prin	-9295
▁Brand	-9296
▁Collect	-9297
▁therapy	-9298
▁static	-9299
\"	-9300
▁firms	-9301
▁toile	-9302
▁involvement	-9303
▁contributions	-9304
................	-9305
▁Hawai	-9306
oir	-9307
▁Sydney	-9308
▁citizen	-9309
1]	-9310
600	-9311
NE	-9312
▁ABC	-9313
bably	-9314
▁instant	-9315
▁(3	-9316
inite	-9317
organ	-9318
rition	-9319
▁cited	-9320
▁Greek	-9321
▁occasionally	-9322
▁lobby	-9323
▁heading	-9324
▁Wi	-9325
▁Alt	-9326
▁footage	-9327
▁allegations	-9328
▁6.	-9329
▁testim	-9330
▁premium	-9331
▁strikes	-9332
▁favourite	-9333
Ob	-9334
▁unlikely	-9335
▁Sa	-9336
viously	-9337
▁minority	-9338
lad	-9339
▁59	-9340
▁Hal	-9341
▁apolog	-9342
▁efficiency	-9343
▁understood	-9344
▁DNA	-9345
▁aspect	-9346
▁dynamic	-9347
▁signature	-9348
oca	-9349
URE	-9350
▁gig	-9351
▁Andy	-9352
▁Iowa	-9353
▁representative	-9354
▁Nations	-9355
▁MM	-9356
alid	-9357
▁Stre	-9358
▁Academy	-9359
▁subjects	-9360
▁ip	-9361
▁Berlin	-9362
turn	-9363
▁ves	-9364
▁fulf	-9365
CD	-9366
▁GB	-9367
▁ic	-9368
▁hardly	-9369
▁aggressive	-9370
▁bullet	-9371
▁Clear	-9372
▁engage	-9373
olec	-9374
▁entering	-9375
▁reputation	-9376
▁Yeah	-9377
▁km	-9378
isodes	-9379
▁rural	-9380
elle	-9381
bet	-9382
▁wage	-9383
▁topics	-9384
▁visits	-9385
▁Anthony	-9386
▁Description	-9387
▁61	-9388
▁Sad	-9389
▁argue	-9390
▁battles	-9391
▁Kennedy	-9392
▁distract	-9393
▁Han	-9394
▁ash	-9395
acles	-9396
▁wondering	-9397
▁Mit	-9398
▁okay	-9399
attered	-9400
▁contribute	-9401
▁directory	-9402
▁recognize	-9403
ixel	-9404
▁ultimate	-9405
▁abilities	-9406
XT	-9407
▁Prop	-9408
▁Command	-9409
▁shoulder	-9410
Go	-9411
▁preced	-9412
▁soil	-9413
interest	-9414
▁activist	-9415
▁Afghanistan	-9416
umbl	-9417
▁bene	-9418
▁transactions	-9419
▁intense	-9420
▁brew	-9421
▁NS	-9422
▁Word	-9423
▁farmers	-9424
▁losses	-9425
TML	-9426
▁brothers	-9427
▁thorough	-9428
''	-9429
▁lift	-9430
▁collective	-9431
800	-9432
▁lux	-9433
▁unusual	-9434
▁Pick	-9435
▁Ott	-9436
▁ESPN	-9437
▁dies	-9438
▁Title	-9439
▁Original	-9440
▁abandoned	-9441
▁10:	-9442
phones	-9443
lvan	-9444
vere	-9445
▁rapidly	-9446
▁ridiculous	-9447
▁Cloud	-9448
▁Navy	-9449
▁lect	-9450
▁Citiz	-9451
▁fewer	-9452
▁roughly	-9453
wall	-9454
▁Phoenix	-9455
▁travell	-9456
▁MY	-9457
Script	-9458
▁Bloom	-9459
▁Whether	-9460
▁deleg	-9461
.:	-9462
cd	-9463
ounding	-9464
▁CM	-9465
ivals	-9466
▁Years	-9467
veland	-9468
ATED	-9469
▁Later	-9470
▁17,	-9471
GBT	-9472
iture	-9473
OWN	-9474
▁Ox	-9475
▁24,	-9476
▁penalty	-9477
▁addressed	-9478
▁Thus	-9479
▁Lewis	-9480
74	-9481
▁Chel	-9482
▁indicated	-9483
▁Italy	-9484
▁guests	-9485
▁19,	-9486
▁void	-9487
TY	-9488
▁DVD	-9489
▁Ont	-9490
▁Utah	-9491
▁Release	-9492
ierce	-9493
▁mouse	-9494
▁scope	-9495
▁trash	-9496
ova	-9497
▁Fed	-9498
▁bot	-9499
▁2016,	-9500
▁Stars	-9501
▁Bernie	-9502
▁Transport	-9503
▁presentation	-9504
▁opposite	-9505
▁18,	-9506
▁simult	-9507
▁Copyright	-9508
▁parliament	-9509
ARE	-9510
▁Occ	-9511
▁width	-9512
▁evolution	-9513
vi	-9514
ito	-9515
graph	-9516
──	-9517
▁Days	-9518
aneously	-9519
ilation	-9520
▁AG	-9521
▁outrage	-9522
▁southern	-9523
apper	-9524
▁inev	-9525
▁recognition	-9526
oli	-9527
ista	-9528
▁Stri	-9529
▁Episode	-9530
▁Ka	-9531
▁concrete	-9532
ulp	-9533
limited	-9534
▁enjoyed	-9535
vas	-9536
▁disaster	-9537
itial	-9538
De	-9539
▁minim	-9540
▁obtain	-9541
▁Vancouver	-9542
▁LO	-9543
▁governor	-9544
wa	-9545
▁convert	-9546
▁jur	-9547
▁piss	-9548
▁Baltimore	-9549
▁hadn	-9550
▁displayed	-9551
OUT	-9552
▁Ave	-9553
verty	-9554
▁Kurd	-9555
▁Status	-9556
▁bump	-9557
▁somebody	-9558
▁regulation	-9559
mons	-9560
▁Looking	-9561
▁kitchen	-9562
▁phenomen	-9563
▁explanation	-9564
▁SF	-9565
otyp	-9566
ormal	-9567
▁Pear	-9568
▁upset	-9569
aro	-9570
▁slot	-9571
ictions	-9572
▁PE	-9573
bury	-9574
▁gains	-9575
▁feelings	-9576
Pe	-9577
▁Ale	-9578
▁aer	-9579
▁dreams	-9580
▁sections	-9581
▁bytes	-9582
doc	-9583
full	-9584
▁63	-9585
▁waters	-9586
Oh	-9587
▁universe	-9588
unc	-9589
heim	-9590
▁rolled	-9591
▁Alan	-9592
bn	-9593
▁mit	-9594
▁Manchester	-9595
UP	-9596
▁euro	-9597
▁utility	-9598
▁__	-9599
▁Empire	-9600
▁reverse	-9601
addy	-9602
break	-9603
cludes	-9604
▁buffer	-9605
olar	-9606
repre	-9607
▁robot	-9608
intendo	-9609
▁distributed	-9610
▁arc	-9611
▁illness	-9612
▁definition	-9613
▁Nob	-9614
▁76	-9615
▁clip	-9616
▁Indeed	-9617
▁Mayor	-9618
uten	-9619
▁anger	-9620
info	-9621
Res	-9622
▁2-	-9623
abet	-9624
aware	-9625
▁exceed	-9626
▁electricity	-9627
iens	-9628
pled	-9629
atics	-9630
▁utter	-9631
obby	-9632
riors	-9633
▁Morgan	-9634
group	-9635
▁anch	-9636
▁proport	-9637
erning	-9638
XX	-9639
what	-9640
▁Leader	-9641
km	-9642
gly	-9643
omm	-9644
▁iP	-9645
anth	-9646
▁discussions	-9647
▁proved	-9648
▁speaks	-9649
▁fails	-9650
▁adopted	-9651
▁invited	-9652
▁Atlanta	-9653
▁Jean	-9654
▁barrel	-9655
▁variable	-9656
▁14,	-9657
▁Dur	-9658
▁Forum	-9659
▁poverty	-9660
▁donations	-9661
▁hosted	-9662
▁suggesting	-9663
▁myster	-9664
▁lawyers	-9665
bus	-9666
▁97	-9667
▁nurs	-9668
▁Premier	-9669
▁arrival	-9670
▁retired	-9671
▁aspects	-9672
▁reveals	-9673
oln	-9674
▁7.	-9675
▁Hunter	-9676
▁assass	-9677
▁voices	-9678
▁intellectual	-9679
▁110	-9680
▁hosts	-9681
reprene	-9682
▁floating	-9683
▁automatic	-9684
▁ye	-9685
alia	-9686
ante	-9687
mare	-9688
▁remained	-9689
▁silent	-9690
▁Univers	-9691
NA	-9692
iche	-9693
dog	-9694
▁Members	-9695
▁Victoria	-9696
83	-9697
gi	-9698
▁SA	-9699
▁1.0	-9700
▁Fal	-9701
▁tweeted	-9702
▁Progress	-9703
obb	-9704
vard	-9705
▁publication	-9706
child	-9707
▁elite	-9708
▁anonymous	-9709
▁12:	-9710
▁vig	-9711
▁Pent	-9712
▁rook	-9713
orting	-9714
person	-9715
▁Body	-9716
▁prize	-9717
▁Applic	-9718
izar	-9719
▁threw	-9720
▁savings	-9721
▁rose	-9722
▁actor	-9723
assador	-9724
itage	-9725
▁fabric	-9726
▁contrast	-9727
▁Marvel	-9728
▁lapt	-9729
▁fingers	-9730
▁suggestions	-9731
▁equally	-9732
▁Illinois	-9733
▁Oil	-9734
▁Race	-9735
▁courts	-9736
▁minimal	-9737
▁guarantee	-9738
rin	-9739
▁AW	-9740
▁overs	-9741
▁Ce	-9742
▁HT	-9743
ectors	-9744
/5	-9745
width	-9746
▁girlfriend	-9747
▁DIS	-9748
▁ner	-9749
▁bottles	-9750
▁appoint	-9751
▁smoking	-9752
▁describes	-9753
▁requirement	-9754
▁segment	-9755
▁74	-9756
▁Conc	-9757
▁painted	-9758
▁3:	-9759
olph	-9760
▁env	-9761
▁Knight	-9762
▁Give	-9763
▁2016.	-9764
▁enhance	-9765
▁Bird	-9766
▁Rand	-9767
▁courtesy	-9768
oning	-9769
▁meets	-9770
▁staying	-9771
roph	-9772
▁Doctor	-9773
▁Pil	-9774
▁dil	-9775
▁specified	-9776
▁ages	-9777
▁balls	-9778
got	-9779
▁Phone	-9780
▁Aren	-9781
▁gathering	-9782
ois	-9783
▁USD	-9784
clusive	-9785
▁Altern	-9786
▁contained	-9787
ummy	-9788
words	-9789
iffs	-9790
▁Host	-9791
rine	-9792
▁25,	-9793
▁Beck	-9794
rock	-9795
▁tired	-9796
▁Method	-9797
▁EM	-9798
▁Sent	-9799
▁attempting	-9800
▁reset	-9801
▁progressive	-9802
fa	-9803
},	-9804
▁promises	-9805
▁TM	-9806
▁abroad	-9807
▁10.	-9808
▁Insp	-9809
▁rival	-9810
▁grounds	-9811
▁tactics	-9812
▁represented	-9813
▁hip	-9814
▁pir	-9815
▁Peace	-9816
▁temporary	-9817
▁(4	-9818
▁recruit	-9819
▁fantastic	-9820
enth	-9821
ught	-9822
eping	-9823
▁Phill	-9824
▁Item	-9825
sylvan	-9826
▁keyboard	-9827
▁Motor	-9828
expected	-9829
pton	-9830
▁rational	-9831
ella	-9832
ocus	-9833
▁teeth	-9834
▁heroes	-9835
▁Guardian	-9836
▁Legend	-9837
▁Instagram	-9838
...]	-9839
▁Virt	-9840
▁TC	-9841
▁ONE	-9842
▁Pod	-9843
▁borrow	-9844
▁deeper	-9845
▁furn	-9846
chron	-9847
▁Corn	-9848
▁presc	-9849
▁Create	-9850
hole	-9851
ouri	-9852
istance	-9853
▁performing	-9854
▁Administration	-9855
Us	-9856
▁BO	-9857
etts	-9858
▁tweets	-9859
ACE	-9860
▁23,	-9861
▁mun	-9862
▁recre	-9863
▁absor	-9864
▁camps	-9865
▁steam	-9866
▁careful	-9867
▁demanding	-9868
emon	-9869
▁Guy	-9870
▁clar	-9871
idency	-9872
▁sorts	-9873
▁sleeping	-9874
BM	-9875
ASH	-9876
▁vit	-9877
▁producing	-9878
▁360	-9879
▁Arc	-9880
▁Sorry	-9881
▁threatening	-9882
▁10-	-9883
istant	-9884
▁physically	-9885
▁READ	-9886
enny	-9887
ipper	-9888
▁Sin	-9889
▁opinions	-9890
▁complaints	-9891
▁uncle	-9892
cap	-9893
wear	-9894
ustration	-9895
▁Ark	-9896
▁pour	-9897
igible	-9898
aun	-9899
IONS	-9900
▁Creek	-9901
▁bol	-9902
▁meal	-9903
▁brilliant	-9904
▁hi	-9905
idal	-9906
▁drew	-9907
▁oblig	-9908
▁expanded	-9909
▁Baby	-9910
string	-9911
▁extend	-9912
▁permit	-9913
▁Song	-9914
▁Patri	-9915
▁avail	-9916
▁foods	-9917
▁chocolate	-9918
grad	-9919
lined	-9920
gal	-9921
List	-9922
▁haz	-9923
▁Learn	-9924
uv	-9925
agen	-9926
▁merc	-9927
▁ratio	-9928
▁suffer	-9929
▁achieved	-9930
▁cleaning	-9931
▁secondary	-9932
▁Self	-9933
▁Tenn	-9934
▁Award	-9935
▁Liver	-9936
▁Software	-9937
▁logo	-9938
▁convin	-9939
▁Affairs	-9940
▁yours	-9941
tra	-9942
blem	-9943
Photo	-9944
▁dating	-9945
▁indicate	-9946
▁quarterback	-9947
about	-9948
iev	-9949
▁sizes	-9950
▁Process	-9951
▁dropping	-9952
▁SL	-9953
▁Xbox	-9954
reddit	-9955
ribed	-9956
▁Webs	-9957
▁attitude	-9958
▁Dick	-9959
▁actors	-9960
▁Interest	-9961
▁gap	-9962
scale	-9963
oons	-9964
they	-9965
▁Fact	-9966
▁crap	-9967
▁Modern	-9968
▁afraid	-9969
▁Executive	-9970
omin	-9971
▁EVER	-9972
▁Incre	-9973
▁picks	-9974
▁rice	-9975
▁span	-9976
...)	-9977
▁Hart	-9978
idays	-9979
▁quit	-9980
▁contributed	-9981
▁execution	-9982
▁birds	-9983
▁horror	-9984
▁latter	-9985
orable	-9986
▁certific	-9987
▁fighters	-9988
sylvania	-9989
mal	-9990
▁chip	-9991
▁clothing	-9992
▁$15	-9993
▁pron	-9994
▁abortion	-9995
▁propaganda	-9996
▁registration	-9997
▁Natural	-9998
▁CBS	-9999
ridge	-10000
▁Fixed	-10001
▁Sarah	-10002
▁hunting	-10003
true	-10004
▁Rat	-10005
▁serial	-10006
▁Got	-10007
elson	-10008
▁cats	-10009
▁Complete	-10010
▁CAN	-10011
▁jew	-10012
▁Larry	-10013
▁RC	-10014
▁babies	-10015
esth	-10016
▁NOW	-10017
▁bold	-10018
istered	-10019
▁languages	-10020
▁membership	-10021
mg	-10022
INT	-10023
ethe	-10024
iffer	-10025
Fl	-10026
▁Target	-10027
ographer	-10028
▁cancell	-10029
▁Financial	-10030
erver	-10031
▁resulted	-10032
79	-10033
KS	-10034
some	-10035
▁consideration	-10036
▁NAT	-10037
etics	-10038
▁nick	-10039
59	-10040
dec	-10041
otton	-10042
▁Philipp	-10043
▁1/2	-10044
▁Comple	-10045
▁impressive	-10046
▁*/	-10047
boards	-10048
▁10%	-10049
▁establishment	-10050
ipher	-10051
title	-10052
iating	-10053
▁brands	-10054
▁calm	-10055
▁incredibly	-10056
▁cod	-10057
▁soph	-10058
▁Dutch	-10059
▁pharm	-10060
▁Living	-10061
▁UPD	-10062
▁pig	-10063
▁Early	-10064
▁forums	-10065
▁WR	-10066
mart	-10067
▁Grow	-10068
IDE	-10069
first	-10070
▁Cold	-10071
▁kiss	-10072
▁corporations	-10073
aya	-10074
▁1998	-10075
6)	-10076
▁hire	-10077
▁scandal	-10078
nie	-10079
ilst	-10080
▁Nat	-10081
▁Stew	-10082
▁flav	-10083
▁Opt	-10084
▁Forest	-10085
▁terrorists	-10086
";	-10087
▁hub	-10088
▁Below	-10089
ologists	-10090
▁2015.	-10091
ificial	-10092
ockets	-10093
▁reserv	-10094
▁Mexican	-10095
rah	-10096
▁stem	-10097
▁diver	-10098
▁Fan	-10099
▁dele	-10100
▁crimin	-10101
▁primarily	-10102
▁73	-10103
umblr	-10104
▁Ther	-10105
▁Travel	-10106
PE	-10107
▁races	-10108
▁Wait	-10109
▁scratch	-10110
▁#1	-10111
show	-10112
lected	-10113
▁Spain	-10114
▁guards	-10115
usting	-10116
▁Advent	-10117
▁legacy	-10118
fil	-10119
▁Loc	-10120
▁tasks	-10121
▁Holl	-10122
▁vari	-10123
▁roy	-10124
▁Server	-10125
She	-10126
▁installation	-10127
aky	-10128
ulse	-10129
DER	-10130
ete	-10131
▁pace	-10132
▁Clark	-10133
▁fer	-10134
▁Jerry	-10135
▁Install	-10136
▁headquarters	-10137
▁Talk	-10138
▁Mater	-10139
▁vulnerable	-10140
ieve	-10141
tery	-10142
▁gri	-10143
▁reaching	-10144
▁Pennsylvania	-10145
▁TW	-10146
▁Ide	-10147
▁chances	-10148
▁mart	-10149
▁codes	-10150
▁ignor	-10151
▁threads	-10152
▁Spl	-10153
▁prost	-10154
kind	-10155
▁16,	-10156
▁debug	-10157
▁hosting	-10158
ports	-10159
▁reducing	-10160
▁prominent	-10161
oned	-10162
▁Training	-10163
left	-10164
▁tower	-10165
▁beating	-10166
▁removal	-10167
▁sew	-10168
igious	-10169
▁1.1	-10170
▁garden	-10171
SD	-10172
▁reddit	-10173
strong	-10174
▁2014.	-10175
▁initiative	-10176
▁CF	-10177
▁discrimination	-10178
max	-10179
iors	-10180
▁gym	-10181
▁Beaut	-10182
udge	-10183
▁strategies	-10184
rat	-10185
ogan	-10186
▁desperate	-10187
▁Wy	-10188
asses	-10189
▁solo	-10190
▁Simon	-10191
▁principles	-10192
▁Ju	-10193
▁rif	-10194
▁Speaking	-10195
▁necessarily	-10196
ITE	-10197
▁Easy	-10198
▁chap	-10199
▁proven	-10200
orer	-10201
▁Info	-10202
▁Happy	-10203
▁Record	-10204
▁nomine	-10205
▁revers	-10206
nell	-10207
▁firing	-10208
▁pointing	-10209
▁estimates	-10210
even	-10211
ishop	-10212
▁horr	-10213
▁gentle	-10214
▁surviv	-10215
▁generations	-10216
arg	-10217
▁NYC	-10218
▁superior	-10219
▁suspended	-10220
▁therm	-10221
▁backed	-10222
▁define	-10223
▁Alliance	-10224
usive	-10225
▁compete	-10226
▁Nintendo	-10227
▁alarm	-10228
ecution	-10229
▁petition	-10230
▁infer	-10231
▁garbage	-10232
('	-10233
reck	-10234
▁Vin	-10235
▁marg	-10236
▁UI	-10237
▁Amb	-10238
abbit	-10239
olving	-10240
▁embed	-10241
▁streaming	-10242
▁1997	-10243
▁FREE	-10244
84	-10245
▁Books	-10246
▁parad	-10247
▁wheels	-10248
estyle	-10249
▁surely	-10250
▁episodes	-10251
TO	-10252
cre	-10253
▁stro	-10254
▁tackle	-10255
▁Arabia	-10256
▁refuse	-10257
▁worlds	-10258
▁Private	-10259
▁coaches	-10260
▁Represent	-10261
▁NASA	-10262
▁fought	-10263
▁blocked	-10264
▁))	-10265
▁password	-10266
▁Sem	-10267
▁suck	-10268
▁blocking	-10269
▁transportation	-10270
▁attach	-10271
Te	-10272
hist	-10273
▁Near	-10274
▁ratings	-10275
▁Trib	-10276
▁enorm	-10277
comfort	-10278
▁Library	-10279
▁founded	-10280
Add	-10281
▁13,	-10282
▁Latin	-10283
▁gained	-10284
▁modified	-10285
otte	-10286
▁Yan	-10287
▁Sony	-10288
fts	-10289
▁coins	-10290
▁designs	-10291
Mod	-10292
opy	-10293
▁Alb	-10294
▁Unit	-10295
▁Others	-10296
ateral	-10297
▁Alpha	-10298
▁discip	-10299
lings	-10300
uity	-10301
▁Bab	-10302
apore	-10303
lahoma	-10304
▁Month	-10305
▁Jeremy	-10306
▁procedures	-10307
▁Na	-10308
orph	-10309
index	-10310
▁Ts	-10311
▁promotion	-10312
▁parameters	-10313
alg	-10314
▁Blu	-10315
▁Lad	-10316
▁rib	-10317
▁Welcome	-10318
▁Tam	-10319
▁humanity	-10320
uell	-10321
▁buttons	-10322
▁profits	-10323
▁franchise	-10324
▁categories	-10325
▁smile	-10326
ambling	-10327
▁Python	-10328
▁racing	-10329
▁Say	-10330
▁Friends	-10331
▁managers	-10332
▁ARE	-10333
▁lip	-10334
▁Senior	-10335
▁Scotland	-10336
]:	-10337
▁Ky	-10338
orses	-10339
▁irre	-10340
achus	-10341
▁leaf	-10342
▁Autom	-10343
▁cache	-10344
▁curious	-10345
▁Es	-10346
keys	-10347
▁Reading	-10348
▁Turkish	-10349
▁Cleveland	-10350
▁suspected	-10351
▁Lock	-10352
▁Studies	-10353
▁ranks	-10354
▁creatures	-10355
▁Les	-10356
▁golf	-10357
▁aimed	-10358
▁compare	-10359
▁preferred	-10360
itzer	-10361
▁Based	-10362
▁96	-10363
▁pipe	-10364
▁2011,	-10365
▁spiritual	-10366
▁manufacturing	-10367
ishes	-10368
▁Quote	-10369
▁guidelines	-10370
omic	-10371
▁(10	-10372
▁Bott	-10373
▁bone	-10374
▁Reuters	-10375
0,	-10376
agging	-10377
ooting	-10378
▁Attack	-10379
▁bureauc	-10380
73	-10381
▁pad	-10382
▁dun	-10383
------------	-10384
▁vital	-10385
▁Magazine	-10386
aria	-10387
▁Path	-10388
feed	-10389
ressing	-10390
▁intervention	-10391
rimin	-10392
itudes	-10393
▁Anonymous	-10394
▁conversations	-10395
▁gre	-10396
From	-10397
▁stadium	-10398
hatt	-10399
▁Festival	-10400
home	-10401
icts	-10402
▁builds	-10403
▁banking	-10404
▁recognized	-10405
▁RO	-10406
▁Lost	-10407
▁Weap	-10408
▁deny	-10409
▁Vietnam	-10410
▁universal	-10411
zes	-10412
▁fut	-10413
track	-10414
▁lighting	-10415
amped	-10416
▁SEC	-10417
heart	-10418
▁Wonder	-10419
▁attacking	-10420
GL	-10421
▁junk	-10422
▁fights	-10423
▁flesh	-10424
▁stronger	-10425
▁conversion	-10426
immer	-10427
▁rejected	-10428
▁childhood	-10429
▁Corp	-10430
▁Leon	-10431
▁dressed	-10432
▁educational	-10433
▁unl	-10434
▁buzz	-10435
jpg	-10436
ervice	-10437
▁historic	-10438
abeth	-10439
▁Diego	-10440
▁signals	-10441
▁retro	-10442
▁stolen	-10443
▁wallet	-10444
▁Mission	-10445
View	-10446
▁debut	-10447
▁depends	-10448
▁distinct	-10449
▁5-	-10450
▁Soul	-10451
▁sour	-10452
▁incredible	-10453
▁representatives	-10454
fin	-10455
izers	-10456
itol	-10457
▁Size	-10458
▁guid	-10459
fers	-10460
store	-10461
holders	-10462
▁distur	-10463
uru	-10464
▁helicop	-10465
▁Abs	-10466
▁fate	-10467
▁vel	-10468
▁Cool	-10469
▁soccer	-10470
▁remarks	-10471
ARY	-10472
youtube	-10473
GR	-10474
▁Print	-10475
▁falls	-10476
▁packed	-10477
▁Imag	-10478
▁Jimmy	-10479
▁bacter	-10480
▁approximately	-10481
fi	-10482
▁apparent	-10483
▁trips	-10484
▁Chelsea	-10485
▁violations	-10486
▁Intelligence	-10487
▁tone	-10488
rying	-10489
▁nit	-10490
ailing	-10491
▁explore	-10492
82	-10493
▁SK	-10494
▁demo	-10495
▁conj	-10496
▁tags	-10497
▁mayor	-10498
▁desert	-10499
▁experiments	-10500
▁epic	-10501
▁Revolution	-10502
eplay	-10503
▁Ward	-10504
▁commands	-10505
▁beta	-10506
▁emerging	-10507
▁cens	-10508
github	-10509
();	-10510
▁fears	-10511
▁Cameron	-10512
▁employed	-10513
▁peer	-10514
points	-10515
▁silence	-10516
▁TD	-10517
▁Mobile	-10518
▁20-	-10519
▁sup	-10520
▁ease	-10521
function	-10522
ogg	-10523
▁burd	-10524
▁roots	-10525
▁preview	-10526
bb	-10527
apolis	-10528
hire	-10529
ophob	-10530
▁Governor	-10531
▁Amendment	-10532
▁convinced	-10533
▁promoting	-10534
▁controller	-10535
▁gut	-10536
▁Brooklyn	-10537
▁Parliament	-10538
▁harvest	-10539
/3	-10540
▁pars	-10541
▁fixes	-10542
▁neighbors	-10543
▁JS	-10544
seud	-10545
▁decline	-10546
▁asc	-10547
▁Always	-10548
▁Gordon	-10549
NS	-10550
isd	-10551
▁Barb	-10552
agu	-10553
kee	-10554
▁Vi	-10555
▁stored	-10556
▁Nin	-10557
▁enthusi	-10558
gov	-10559
▁hockey	-10560
▁submit	-10561
▁Mort	-10562
ecting	-10563
▁Graph	-10564
▁province	-10565
▁4:	-10566
▁tar	-10567
▁Gene	-10568
▁Oklahoma	-10569
▁revel	-10570
▁hosp	-10571
▁synd	-10572
lining	-10573
▁steal	-10574
▁FROM	-10575
▁component	-10576
▁sanctions	-10577
lu	-10578
▁Fle	-10579
▁Half	-10580
▁LGBT	-10581
▁offset	-10582
mir	-10583
▁94	-10584
▁muscle	-10585
▁reply	-10586
▁salary	-10587
gender	-10588
rik	-10589
▁GL	-10590
▁LED	-10591
▁ya	-10592
lord	-10593
▁disrupt	-10594
▁operate	-10595
▁AV	-10596
▁tear	-10597
▁backs	-10598
▁coinc	-10599
▁loans	-10600
▁ES	-10601
ombie	-10602
▁conspiracy	-10603
▁Russell	-10604
▁Kal	-10605
proof	-10606
▁edited	-10607
▁critics	-10608
▁entitled	-10609
▁hypoth	-10610
etry	-10611
▁Stra	-10612
▁trucks	-10613
▁matching	-10614
▁Nik	-10615
▁Side	-10616
ronics	-10617
oj	-10618
pot	-10619
▁Kill	-10620
▁powder	-10621
▁podcast	-10622
▁Ministry	-10623
▁procedure	-10624
▁IF	-10625
author	-10626
▁drove	-10627
▁hydro	-10628
▁handful	-10629
▁caption	-10630
▁DM	-10631
▁coup	-10632
▁judges	-10633
▁unexpected	-10634
▁translation	-10635
▁Rap	-10636
▁gross	-10637
▁encouraged	-10638
▁beneath	-10639
▁foundation	-10640
▁cub	-10641
amous	-10642
▁toxic	-10643
▁Really	-10644
fly	-10645
▁SR	-10646
▁Nature	-10647
▁heaven	-10648
▁86	-10649
▁130	-10650
▁comedy	-10651
▁awful	-10652
▁Fish	-10653
▁Graham	-10654
▁hearts	-10655
Can	-10656
▁WAR	-10657
aults	-10658
▁Arts	-10659
▁Jane	-10660
′′	-10661
▁Something	-10662
cal	-10663
books	-10664
/7	-10665
▁frequency	-10666
bourne	-10667
▁Mario	-10668
▁quoted	-10669
▁Hind	-10670
▁Grant	-10671
▁Photos	-10672
▁engines	-10673
▁Jonathan	-10674
▁tradition	-10675
▁Ess	-10676
▁2013.	-10677
▁Ow	-10678
▁Nich	-10679
▁facilit	-10680
▁practical	-10681
orig	-10682
amsung	-10683
UCK	-10684
▁perf	-10685
▁schem	-10686
▁ER	-10687
▁Orange	-10688
▁prospect	-10689
▁uncertain	-10690
▁tune	-10691
ollar	-10692
▁sequence	-10693
▁Bol	-10694
▁Dear	-10695
ricane	-10696
▁seeds	-10697
duces	-10698
▁guitar	-10699
▁discovery	-10700
▁wedding	-10701
▁concerning	-10702
▁supplement	-10703
isdom	-10704
▁hammer	-10705
▁periods	-10706
▁2)	-10707
00000000	-10708
▁Working	-10709
achusetts	-10710
CO	-10711
thur	-10712
▁ram	-10713
▁useless	-10714
charge	-10715
▁Gallery	-10716
▁fiction	-10717
▁literature	-10718
lisher	-10719
▁Capri	-10720
▁adventure	-10721
▁Ru	-10722
▁tong	-10723
▁mechanism	-10724
aux	-10725
quer	-10726
▁Getty	-10727
▁overseas	-10728
▁symptoms	-10729
there	-10730
▁Warren	-10731
emic	-10732
oser	-10733
▁ANY	-10734
▁formal	-10735
▁dual	-10736
▁Gab	-10737
▁Barn	-10738
▁knock	-10739
▁picking	-10740
▁declined	-10741
local	-10742
▁String	-10743
▁speaker	-10744
▁template	-10745
▁Nev	-10746
minute	-10747
▁lawmakers	-10748
/16	-10749
rup	-10750
aund	-10751
▁RES	-10752
image	-10753
▁rocks	-10754
▁scared	-10755
▁Ry	-10756
vious	-10757
missions	-10758
▁Gulf	-10759
incoln	-10760
starter	-10761
▁anniversary	-10762
rawl	-10763
▁Mas	-10764
▁waves	-10765
▁missions	-10766
▁capabilities	-10767
BR	-10768
▁pride	-10769
▁improving	-10770
▁elder	-10771
▁Beyond	-10772
▁collapse	-10773
400	-10774
▁Pu	-10775
ensing	-10776
▁atmosphere	-10777
▁restaurants	-10778
▁"...	-10779
▁Hugh	-10780
▁challenging	-10781
mony	-10782
EE	-10783
▁1960	-10784
▁Carter	-10785
▁Safety	-10786
▁investments	-10787
▁Audio	-10788
▁Machine	-10789
▁speakers	-10790
▁21,	-10791
▁thru	-10792
▁naked	-10793
.'"	-10794
aug	-10795
walk	-10796
agraph	-10797
▁Metro	-10798
▁crucial	-10799
▁provider	-10800
esa	-10801
▁mos	-10802
▁Cole	-10803
▁Duke	-10804
▁Brother	-10805
ocial	-10806
▁McDonald	-10807
▁transaction	-10808
▁Bure	-10809
▁passengers	-10810
erald	-10811
▁zones	-10812
▁ranked	-10813
▁delayed	-10814
▁Abd	-10815
▁Bes	-10816
istol	-10817
▁drum	-10818
held	-10819
GH	-10820
▁rhet	-10821
▁stayed	-10822
▁badly	-10823
▁festival	-10824
kill	-10825
▁celebrate	-10826
81	-10827
▁NBC	-10828
▁chaos	-10829
▁burned	-10830
▁producers	-10831
-200	-10832
bian	-10833
▁Bir	-10834
▁Dak	-10835
ijing	-10836
▁Points	-10837
▁pipeline	-10838
▁OFF	-10839
▁jam	-10840
▁intim	-10841
▁Gh	-10842
▁Exam	-10843
▁pants	-10844
▁delight	-10845
▁documentation	-10846
NY	-10847
▁Ped	-10848
▁decor	-10849
▁Hu	-10850
▁Eliz	-10851
izarre	-10852
▁angle	-10853
▁Following	-10854
eing	-10855
▁timing	-10856
▁1996	-10857
▁kernel	-10858
▁Bible	-10859
▁roster	-10860
▁executives	-10861
▁bluel	-10862
▁panels	-10863
chell	-10864
▁Rank	-10865
▁clever	-10866
▁Rome	-10867
▁Hitler	-10868
▁Michel	-10869
▁CP	-10870
▁Alber	-10871
▁Laure	-10872
vo	-10873
▁8.	-10874
▁bowl	-10875
▁Tan	-10876
▁nons	-10877
▁amongst	-10878
▁mods	-10879
▁pile	-10880
▁Match	-10881
▁93	-10882
▁mg	-10883
▁presents	-10884
▁completion	-10885
SH	-10886
▁patri	-10887
▁scrut	-10888
▁Classic	-10889
▁Harvard	-10890
▁margin	-10891
requ	-10892
▁evac	-10893
▁Anyway	-10894
▁export	-10895
pc	-10896
aku	-10897
▁meters	-10898
Now	-10899
onz	-10900
▁Py	-10901
expl	-10902
▁Tes	-10903
▁spam	-10904
▁scripts	-10905
▁supposedly	-10906
▁investigate	-10907
Red	-10908
▁Laur	-10909
▁tempor	-10910
▁Entertain	-10911
outed	-10912
▁cute	-10913
▁tens	-10914
▁Value	-10915
ching	-10916
▁sword	-10917
▁powered	-10918
▁Hamilton	-10919
▁racism	-10920
▁defence	-10921
▁knife	-10922
▁unemploy	-10923
▁VP	-10924
▁neuro	-10925
▁79	-10926
bird	-10927
▁outlets	-10928
▁interact	-10929
-18	-10930
usc	-10931
▁$25	-10932
▁flavor	-10933
▁Available	-10934
gage	-10935
untu	-10936
▁complaint	-10937
▁protesters	-10938
/17	-10939
gged	-10940
▁Hans	-10941
▁Shield	-10942
▁emerged	-10943
▁Massachusetts	-10944
bot	-10945
ifice	-10946
▁disk	-10947
sur	-10948
▁inquir	-10949
▁courses	-10950
SU	-10951
▁beef	-10952
▁insane	-10953
▁killer	-10954
▁charity	-10955
▁gathered	-10956
▁technique	-10957
bott	-10958
▁layers	-10959
olid	-10960
▁HTML	-10961
▁devast	-10962
inf	-10963
acer	-10964
town	-10965
▁20%	-10966
▁1995	-10967
▁midnight	-10968
▁89	-10969
media	-10970
▁WILL	-10971
▁cyber	-10972
▁stopping	-10973
elve	-10974
▁painting	-10975
ONG	-10976
▁argued	-10977
▁ethnic	-10978
▁innovation	-10979
▁improvement	-10980
haw	-10981
uki	-10982
▁22,	-10983
fox	-10984
▁bombs	-10985
▁diseases	-10986
▁Resources	-10987
adv	-10988
ori	-10989
▁ow	-10990
shire	-10991
▁summon	-10992
▁desktop	-10993
▁reliable	-10994
***	-10995
cos	-10996
▁3.5	-10997
arency	-10998
sing	-10999
▁Domin	-11000
▁chips	-11001
▁towns	-11002
▁corn	-11003
▁clinical	-11004
pa	-11005
▁Ocean	-11006
▁rely	-11007
▁kinda	-11008
aval	-11009
▁wrap	-11010
▁cents	-11011
▁retreat	-11012
▁dot	-11013
▁perceived	-11014
▁Dal	-11015
▁Evil	-11016
▁startup	-11017
mat	-11018
▁Ger	-11019
▁Mix	-11020
▁Tel	-11021
anded	-11022
▁Gear	-11023
▁Stay	-11024
▁Vice	-11025
▁tier	-11026
▁viewers	-11027
▁equality	-11028
▁innocent	-11029
▁Spot	-11030
▁Enjoy	-11031
▁destro	-11032
▁destination	-11033
▁aver	-11034
▁tissue	-11035
▁Nut	-11036
▁sauce	-11037
▁deemed	-11038
▁Oakland	-11039
▁Comment	-11040
▁professionals	-11041
.11	-11042
▁Film	-11043
▁figured	-11044
▁container	-11045
▁maintained	-11046
var	-11047
▁nu	-11048
ptic	-11049
▁(1)	-11050
▁hes	-11051
▁Produc	-11052
▁84	-11053
ucker	-11054
▁Gray	-11055
▁Salt	-11056
▁fifth	-11057
▁settlement	-11058
▁Aqu	-11059
▁jer	-11060
▁folder	-11061
▁Until	-11062
▁dancing	-11063
-14	-11064
▁NV	-11065
acket	-11066
▁bund	-11067
▁molec	-11068
▁hiring	-11069
▁GET	-11070
▁Merc	-11071
▁stages	-11072
▁"[	-11073
▁stir	-11074
▁Military	-11075
▁cannabis	-11076
▁interaction	-11077
shore	-11078
▁bullshit	-11079
▁140	-11080
▁confused	-11081
▁accum	-11082
▁athletes	-11083
':	-11084
storm	-11085
▁cust	-11086
▁fiscal	-11087
▁isolated	-11088
▁association	-11089
fig	-11090
was	-11091
uating	-11092
▁deputy	-11093
▁lowest	-11094
-17	-11095
▁Ga	-11096
party	-11097
pu	-11098
when	-11099
ecraft	-11100
▁Singapore	-11101
▁PRO	-11102
▁Ltd	-11103
▁tube	-11104
▁Crime	-11105
inating	-11106
▁landed	-11107
▁promising	-11108
Val	-11109
▁Typ	-11110
ifting	-11111
▁quotes	-11112
ATH	-11113
▁token	-11114
isy	-11115
▁87	-11116
omer	-11117
▁Hallow	-11118
▁Website	-11119
Why	-11120
▁Dat	-11121
▁fundra	-11122
▁testimony	-11123
orns	-11124
ulpt	-11125
▁Continue	-11126
▁71	-11127
▁fest	-11128
▁flowers	-11129
▁merch	-11130
▁pics	-11131
▁jumping	-11132
▁hopefully	-11133
▁XX	-11134
▁Campaign	-11135
▁landscape	-11136
eld	-11137
▁integrated	-11138
ben	-11139
▁Chem	-11140
bes	-11141
boys	-11142
▁ranking	-11143
▁optional	-11144
-16	-11145
▁Ground	-11146
▁coalition	-11147
▁emissions	-11148
▁complicated	-11149
opp	-11150
▁expense	-11151
▁Advanced	-11152
vol	-11153
▁por	-11154
▁blast	-11155
▁jihad	-11156
▁followers	-11157
▁Associated	-11158
▁Inside	-11159
▁Wikipedia	-11160
▁Mode	-11161
▁Marine	-11162
▁convenient	-11163
▁difficulty	-11164
"?	-11165
▁Ontario	-11166
▁diversity	-11167
casts	-11168
giving	-11169
▁discussing	-11170
Every	-11171
arding	-11172
▁Similar	-11173
▁outcome	-11174
▁bearing	-11175
EAR	-11176
gus	-11177
▁Bor	-11178
▁GPU	-11179
▁Jess	-11180
▁Princ	-11181
▁assessment	-11182
iar	-11183
▁Send	-11184
▁Imper	-11185
▁notion	-11186
▁sweat	-11187
▁impression	-11188
▁REAL	-11189
▁convince	-11190
▁reserved	-11191
▁integrity	-11192
▁requiring	-11193
▁Joy	-11194
▁Kit	-11195
▁Row	-11196
▁golden	-11197
▁trailer	-11198
▁viewing	-11199
▁lessons	-11200
▁designer	-11201
▁hill	-11202
▁Element	-11203
▁Corporation	-11204
ML	-11205
▁oz	-11206
▁brutal	-11207
▁1-	-11208
▁ware	-11209
▁Saint	-11210
▁Tower	-11211
umbling	-11212
▁Diamond	-11213
lla	-11214
pling	-11215
▁Luck	-11216
icipal	-11217
mented	-11218
Act	-11219
▁Belg	-11220
▁Beijing	-11221
▁Atlantic	-11222
▁Fly	-11223
BER	-11224
▁fert	-11225
▁stability	-11226
▁mate	-11227
▁odds	-11228
▁Aaron	-11229
▁Chap	-11230
urable	-11231
▁Victor	-11232
▁undert	-11233
▁targeting	-11234
CS	-11235
ardo	-11236
olas	-11237
▁Tai	-11238
▁Liberal	-11239
jud	-11240
▁ET	-11241
athon	-11242
aments	-11243
▁arbit	-11244
▁bias	-11245
▁cosm	-11246
father	-11247
▁eastern	-11248
▁summary	-11249
▁Christians	-11250
iva	-11251
▁Kl	-11252
▁greet	-11253
▁junior	-11254
sn	-11255
ormon	-11256
gments	-11257
▁incidents	-11258
▁dear	-11259
▁Village	-11260
▁choosing	-11261
▁27,	-11262
▁attending	-11263
▁voter	-11264
▁drinks	-11265
umm	-11266
▁Bart	-11267
▁Coal	-11268
▁filling	-11269
▁Thompson	-11270
▁Study	-11271
▁Garden	-11272
▁Single	-11273
▁occurs	-11274
▁Gate	-11275
▁Account	-11276
▁Entertainment	-11277
idding	-11278
▁pursu	-11279
claimed	-11280
▁Against	-11281
▁recy	-11282
▁genetic	-11283
png	-11284
source	-11285
▁Quality	-11286
▁accessible	-11287
FOR	-11288
phant	-11289
▁padd	-11290
▁ruled	-11291
▁Lincoln	-11292
▁endorse	-11293
▁Gard	-11294
▁creature	-11295
▁dialogue	-11296
▁frequent	-11297
▁Liverpool	-11298
alties	-11299
ventions	-11300
▁silly	-11301
assy	-11302
▁Fac	-11303
▁Content	-11304
▁pleasure	-11305
▁Large	-11306
▁missile	-11307
▁mothers	-11308
▁assembly	-11309
oren	-11310
▁openly	-11311
▁parallel	-11312
▁Conservative	-11313
53	-11314
ques	-11315
▁MAR	-11316
▁commentary	-11317
/15	-11318
▁bind	-11319
)"	-11320
▁Raj	-11321
▁arts	-11322
▁supplied	-11323
▁integration	-11324
▁ladies	-11325
▁memories	-11326
▁Pok	-11327
▁toy	-11328
▁tale	-11329
▁labour	-11330
▁Cou	-11331
▁Jen	-11332
atoes	-11333
struct	-11334
▁kills	-11335
NC	-11336
▁ACT	-11337
▁framework	-11338
NG	-11339
▁dirt	-11340
▁frames	-11341
▁protecting	-11342
▁Shop	-11343
▁slam	-11344
▁Titan	-11345
▁investigators	-11346
iw	-11347
ACH	-11348
▁recept	-11349
▁leather	-11350
▁rubber	-11351
▁knee	-11352
▁flaw	-11353
▁Employ	-11354
▁singing	-11355
▁negotiations	-11356
▁universities	-11357
52	-11358
▁nod	-11359
▁entreprene	-11360
PER	-11361
ategory	-11362
ecessary	-11363
▁monsters	-11364
▁prisoners	-11365
lly	-11366
white	-11367
▁Touch	-11368
▁swing	-11369
uri	-11370
girl	-11371
/2015	-11372
▁Poll	-11373
▁WATCH	-11374
▁Thunder	-11375
▁collaps	-11376
▁Pir	-11377
▁Tea	-11378
annon	-11379
▁Grey	-11380
▁cycl	-11381
▁Constitution	-11382
▁Zh	-11383
false	-11384
pol	-11385
ceeds	-11386
▁Rice	-11387
▁Chron	-11388
▁solely	-11389
▁greatly	-11390
▁Partners	-11391
▁instantly	-11392
▁programme	-11393
▁Christopher	-11394
▁4-	-11395
pert	-11396
▁tob	-11397
▁hilar	-11398
ributed	-11399
▁planes	-11400
▁compatible	-11401
▁fel	-11402
▁skip	-11403
▁Limited	-11404
▁punishment	-11405
▁$500	-11406
▁Malays	-11407
▁displays	-11408
enh	-11409
via	-11410
▁Glass	-11411
▁honey	-11412
▁Native	-11413
▁Collection	-11414
▁cake	-11415
▁rage	-11416
▁managing	-11417
▁bubble	-11418
Gu	-11419
▁Tokyo	-11420
▁harassment	-11421
acre	-11422
ideos	-11423
▁2012.	-11424
Post	-11425
▁Airport	-11426
▁endless	-11427
ederation	-11428
▁expenses	-11429
▁removing	-11430
▁politically	-11431
▁82	-11432
▁Maryland	-11433
▁democratic	-11434
onda	-11435
▁holy	-11436
umbled	-11437
:45	-11438
Off	-11439
▁Roger	-11440
▁volunteers	-11441
▁documentary	-11442
▁src	-11443
▁Truth	-11444
▁veterans	-11445
stic	-11446
▁vacation	-11447
▁Kings	-11448
ulty	-11449
think	-11450
▁virus	-11451
shirt	-11452
value	-11453
▁packs	-11454
oples	-11455
▁kilomet	-11456
akh	-11457
pdf	-11458
ettings	-11459
▁traveling	-11460
▁ox	-11461
thood	-11462
▁deadly	-11463
▁expanding	-11464
uu	-11465
omed	-11466
▁Syn	-11467
▁Dean	-11468
▁Scar	-11469
ousing	-11470
▁cheaper	-11471
oots	-11472
▁700	-11473
▁clicking	-11474
iph	-11475
web	-11476
▁Mi	-11477
▁polls	-11478
Ne	-11479
▁Rail	-11480
overs	-11481
write	-11482
▁Within	-11483
▁captain	-11484
▁libr	-11485
▁burst	-11486
▁Sheriff	-11487
enez	-11488
ixon	-11489
▁jokes	-11490
▁walks	-11491
▁simultaneously	-11492
▁3.0	-11493
▁Tell	-11494
▁dose	-11495
▁Trail	-11496
▁consent	-11497
Just	-11498
common	-11499
▁layout	-11500
▁objective	-11501
vet	-11502
▁avo	-11503
adows	-11504
▁horrible	-11505
▁Temple	-11506
▁Wright	-11507
▁partnership	-11508
)(	-11509
▁sink	-11510
actic	-11511
▁Unlike	-11512
▁28,	-11513
▁92	-11514
▁29,	-11515
▁possession	-11516
▁MAN	-11517
▁Studio	-11518
▁insult	-11519
▁transc	-11520
▁defending	-11521
arios	-11522
▁wound	-11523
▁awards	-11524
FI	-11525
▁Hub	-11526
OK	-11527
ogy	-11528
▁Adams	-11529
ORY	-11530
▁iOS	-11531
roups	-11532
▁Draft	-11533
▁Queens	-11534
▁instrument	-11535
▁Ax	-11536
▁Samsung	-11537
▁inspiration	-11538
maker	-11539
▁pizza	-11540
▁Screen	-11541
▁Iranian	-11542
tic	-11543
▁fires	-11544
▁chronic	-11545
▁entrance	-11546
gro	-11547
AKE	-11548
ILS	-11549
▁Mand	-11550
▁Paper	-11551
▁highlights	-11552
▁Dor	-11553
▁wip	-11554
▁Drag	-11555
▁temp	-11556
▁Argent	-11557
▁frozen	-11558
▁ritual	-11559
loy	-11560
▁NA	-11561
▁NSA	-11562
▁2020	-11563
intage	-11564
▁Activ	-11565
▁assign	-11566
▁Gib	-11567
▁Bond	-11568
riptions	-11569
▁handled	-11570
cha	-11571
▁Gill	-11572
ylum	-11573
▁subur	-11574
▁Reagan	-11575
▁engineer	-11576
Our	-11577
tail	-11578
▁gest	-11579
cf	-11580
▁Kind	-11581
▁spotted	-11582
▁trap	-11583
▁meals	-11584
▁enormous	-11585
▁concluded	-11586
▁Drop	-11587
▁consc	-11588
▁retirement	-11589
▁od	-11590
▁Bug	-11591
▁disg	-11592
▁alloc	-11593
OOK	-11594
▁aka	-11595
▁cum	-11596
leans	-11597
▁persu	-11598
▁plates	-11599
▁emotion	-11600
drop	-11601
▁Hung	-11602
▁collecting	-11603
acious	-11604
hattan	-11605
usters	-11606
▁Arena	-11607
▁beliefs	-11608
▁bureaucr	-11609
▁recommendations	-11610
SO	-11611
leb	-11612
▁cogn	-11613
▁routes	-11614
▁countless	-11615
prot	-11616
▁2017.	-11617
▁dismissed	-11618
your	-11619
▁cous	-11620
essing	-11621
elligent	-11622
▁consistently	-11623
▁divided	-11624
▁Missouri	-11625
▁mandatory	-11626
Mar	-11627
▁Pract	-11628
step	-11629
▁ain	-11630
▁Pope	-11631
▁Index	-11632
%,	-11633
story	-11634
umper	-11635
around	-11636
▁Hills	-11637
▁tatt	-11638
▁feeding	-11639
▁PDF	-11640
▁Wat	-11641
▁Batt	-11642
▁duration	-11643
color	-11644
▁shipped	-11645
▁legitimate	-11646
Net	-11647
▁Uber	-11648
▁creep	-11649
▁contents	-11650
▁animation	-11651
▁Performance	-11652
chi	-11653
▁pled	-11654
RO	-11655
▁Sold	-11656
▁forcing	-11657
▁hospitals	-11658
lects	-11659
▁accus	-11660
▁rolls	-11661
▁git	-11662
▁spells	-11663
▁bathroom	-11664
▁terminal	-11665
▁warnings	-11666
▁Halloween	-11667
▁Osc	-11668
......	-11669
▁Girls	-11670
▁slide	-11671
OLD	-11672
dig	-11673
▁QB	-11674
▁explaining	-11675
hh	-11676
Well	-11677
▁boots	-11678
espread	-11679
▁absence	-11680
▁borders	-11681
▁Campbell	-11682
marks	-11683
visor	-11684
▁strategic	-11685
▁Craig	-11686
▁Treat	-11687
▁Ton	-11688
▁sidew	-11689
di	-11690
ql	-11691
pin	-11692
▁Gay	-11693
▁Hello	-11694
▁importantly	-11695
").	-11696
File	-11697
table	-11698
▁tears	-11699
▁Kentucky	-11700
UB	-11701
▁30-	-11702
▁civ	-11703
lando	-11704
▁escal	-11705
▁delete	-11706
▁Poke	-11707
▁folk	-11708
▁fleet	-11709
▁Overall	-11710
▁satellite	-11711
▁scientist	-11712
▁Murray	-11713
▁Details	-11714
▁underground	-11715
.10	-11716
▁principle	-11717
encer	-11718
ioned	-11719
▁forb	-11720
▁Century	-11721
▁invasion	-11722
▁indicates	-11723
▁toilet	-11724
▁estimate	-11725
=0	-11726
ANS	-11727
▁Wire	-11728
roller	-11729
▁trends	-11730
▁Ask	-11731
▁Pitts	-11732
▁/*	-11733
rise	-11734
▁Indiana	-11735
91	-11736
▁belt	-11737
Am	-11738
▁Ali	-11739
▁hey	-11740
▁mood	-11741
▁Ident	-11742
▁Veter	-11743
▁circuit	-11744
▁insight	-11745
▁ownership	-11746
▁introduction	-11747
8)	-11748
abling	-11749
▁slight	-11750
7)	-11751
▁GP	-11752
Ass	-11753
▁Electric	-11754
▁Authority	-11755
▁Elizabeth	-11756
DB	-11757
iots	-11758
anche	-11759
▁Cart	-11760
▁bitch	-11761
▁screaming	-11762
/14	-11763
oute	-11764
ateur	-11765
forced	-11766
▁Computer	-11767
/19	-11768
▁hem	-11769
▁Message	-11770
▁measured	-11771
▁troll	-11772
▁Stream	-11773
▁Bed	-11774
▁Dim	-11775
▁tang	-11776
erving	-11777
▁rookie	-11778
▁$7	-11779
▁BTC	-11780
▁Proper	-11781
▁Tennes	-11782
▁listing	-11783
****************	-11784
▁queue	-11785
imb	-11786
▁Wayne	-11787
▁resolve	-11788
9)	-11789
mont	-11790
▁fancy	-11791
▁Perfect	-11792
▁charging	-11793
▁judgment	-11794
▁healthcare	-11795
▁},	-11796
▁12-	-11797
▁Surv	-11798
▁Sleep	-11799
▁Anyone	-11800
▁Gi	-11801
▁pp	-11802
▁Beat	-11803
▁Jacob	-11804
▁Olympic	-11805
▁commonly	-11806
▁Personal	-11807
])	-11808
rap	-11809
▁bust	-11810
:10	-11811
▁mock	-11812
▁actively	-11813
▁lifestyle	-11814
:15	-11815
▁juice	-11816
▁circles	-11817
▁nowhere	-11818
▁pressing	-11819
56	-11820
omach	-11821
▁ordinary	-11822
▁flour	-11823
▁Urban	-11824
▁NHL	-11825
▁creator	-11826
▁cooperation	-11827
▁contribution	-11828
▁Heat	-11829
▁glob	-11830
▁Economic	-11831
Tw	-11832
search	-11833
▁concert	-11834
▁Ze	-11835
asma	-11836
▁nob	-11837
▁Weight	-11838
▁phrase	-11839
▁Getting	-11840
▁refresh	-11841
RI	-11842
▁Cell	-11843
▁Bureau	-11844
▁Johnny	-11845
▁introduce	-11846
leton	-11847
▁barg	-11848
▁wages	-11849
▁provision	-11850
▁ports	-11851
▁sevent	-11852
▁substance	-11853
oa	-11854
▁Pin	-11855
▁brush	-11856
▁justify	-11857
▁breakfast	-11858
▁##	-11859
▁din	-11860
▁fru	-11861
▁Cover	-11862
▁query	-11863
entials	-11864
▁formation	-11865
▁passenger	-11866
▁conclusion	-11867
▁aug	-11868
formed	-11869
elta	-11870
▁Sweden	-11871
-09	-11872
uum	-11873
ussion	-11874
▁violation	-11875
▁jet	-11876
▁Players	-11877
▁damaged	-11878
▁Ster	-11879
▁pseud	-11880
▁Assembly	-11881
ocaly	-11882
powered	-11883
▁centuries	-11884
acular	-11885
breaking	-11886
Gr	-11887
▁sends	-11888
▁eliminate	-11889
▁tex	-11890
arest	-11891
▁beloved	-11892
▁$6	-11893
▁aged	-11894
▁prol	-11895
▁Damage	-11896
▁constitu	-11897
mem	-11898
ainer	-11899
▁Coin	-11900
▁trials	-11901
▁advocates	-11902
Book	-11903
▁Hotel	-11904
▁Spect	-11905
▁straw	-11906
▁fallen	-11907
two	-11908
▁26,	-11909
agged	-11910
▁Chuck	-11911
▁passage	-11912
▁91	-11913
▁cleared	-11914
▁functionality	-11915
last	-11916
unny	-11917
▁jury	-11918
▁rated	-11919
▁Alaska	-11920
gence	-11921
▁Sens	-11922
anners	-11923
▁Rules	-11924
▁Swiss	-11925
covered	-11926
▁Nevada	-11927
▁instances	-11928
▁naturally	-11929
▁functional	-11930
▁Pink	-11931
orical	-11932
▁eager	-11933
▁acceptable	-11934
▁regulatory	-11935
▁AK	-11936
enged	-11937
sized	-11938
▁Making	-11939
▁stepped	-11940
uto	-11941
▁FE	-11942
▁Records	-11943
▁graduate	-11944
▁sandwich	-11945
▁directions	-11946
hill	-11947
▁0.0	-11948
▁Gas	-11949
▁makers	-11950
▁interrupt	-11951
▁Tar	-11952
▁dash	-11953
▁Capitol	-11954
nal	-11955
":{"	-11956
stick	-11957
▁Yellow	-11958
▁convicted	-11959
xygen	-11960
▁cave	-11961
▁Animal	-11962
▁restore	-11963
▁shelter	-11964
clock	-11965
▁Todd	-11966
▁[...]	-11967
▁Fab	-11968
▁sab	-11969
▁cups	-11970
▁operator	-11971
▁ma	-11972
▁10,000	-11973
▁murdered	-11974
▁legislative	-11975
▁comprehensive	-11976
▁Und	-11977
▁Appro	-11978
▁overl	-11979
▁variables	-11980
▁surrounded	-11981
▁preparation	-11982
51	-11983
May	-11984
▁pepper	-11985
▁Independent	-11986
▁Ec	-11987
▁Wheel	-11988
mi	-11989
▁proph	-11990
▁lesson	-11991
▁QU	-11992
▁Hus	-11993
senal	-11994
▁purchases	-11995
▁ps	-11996
rint	-11997
uther	-11998
▁volunteer	-11999
▁homosexual	-12000
▁pays	-12001
▁disorder	-12002
▁mild	-12003
▁guidance	-12004
▁lifetime	-12005
▁rewards	-12006
reach	-12007
▁Devil	-12008
▁UPDATE	-12009
acred	-12010
igenous	-12011
▁Manhattan	-12012
▁1.2	-12013
String	-12014
▁divor	-12015
▁skull	-12016
▁Poly	-12017
ernand	-12018
▁manifest	-12019
beat	-12020
▁ears	-12021
▁Spirit	-12022
▁Ub	-12023
▁Launch	-12024
▁Morning	-12025
▁Orleans	-12026
bas	-12027
▁Enc	-12028
▁Rush	-12029
▁bases	-12030
▁metab	-12031
▁differently	-12032
disc	-12033
click	-12034
▁lovely	-12035
▁transit	-12036
▁Cars	-12037
▁thumb	-12038
▁industries	-12039
allow	-12040
▁DA	-12041
▁$12	-12042
▁Mis	-12043
▁Tree	-12044
▁excuse	-12045
oard	-12046
▁Meet	-12047
▁employers	-12048
▁finishing	-12049
izont	-12050
▁NATO	-12051
▁paste	-12052
▁mistakes	-12053
netic	-12054
▁Lie	-12055
▁McM	-12056
▁Cert	-12057
iatric	-12058
▁entries	-12059
/8	-12060
???	-12061
Rec	-12062
▁Nice	-12063
▁Galaxy	-12064
iary	-12065
▁meta	-12066
▁modules	-12067
▁350	-12068
▁calendar	-12069
▁Il	-12070
EX	-12071
▁kidn	-12072
▁volt	-12073
▁Fresh	-12074
▁luxury	-12075
▁mounted	-12076
▁Hat	-12077
amine	-12078
▁Same	-12079
▁Site	-12080
▁coord	-12081
▁personality	-12082
▁adequ	-12083
▁Question	-12084
▁subsequent	-12085
Er	-12086
~~~~	-12087
▁trim	-12088
▁Close	-12089
▁cheer	-12090
▁flights	-12091
▁contacted	-12092
kn	-12093
▁begun	-12094
▁sheets	-12095
ikh	-12096
▁Feed	-12097
▁iter	-12098
▁sake	-12099
▁Student	-12100
▁diverse	-12101
▁Track	-12102
Sec	-12103
▁83	-12104
uter	-12105
▁Kid	-12106
▁fence	-12107
▁coaching	-12108
▁donation	-12109
flix	-12110
portant	-12111
sic	-12112
▁Fif	-12113
endum	-12114
▁trains	-12115
▁entities	-12116
▁reck	-12117
▁trem	-12118
▁ugly	-12119
▁Treas	-12120
tor	-12121
▁rip	-12122
urches	-12123
acies	-12124
▁entity	-12125
▁analyst	-12126
▁Official	-12127
mun	-12128
▁bicy	-12129
▁loads	-12130
▁suspic	-12131
▁awarded	-12132
▁deadline	-12133
▁pregnant	-12134
▁bay	-12135
▁Nazi	-12136
ippers	-12137
second	-12138
▁collaboration	-12139
>>	-12140
Read	-12141
kward	-12142
▁Murphy	-12143
▁theories	-12144
▁Apparently	-12145
▁investigations	-12146
ctic	-12147
▁shake	-12148
▁pursue	-12149
▁Between	-12150
▁Collins	-12151
complete	-12152
▁theater	-12153
▁detection	-12154
NING	-12155
▁shower	-12156
▁tricks	-12157
eu	-12158
IDS	-12159
uming	-12160
▁Transl	-12161
▁musical	-12162
has	-12163
▁Tun	-12164
▁ONLY	-12165
▁architecture	-12166
▁Viol	-12167
isible	-12168
▁fatal	-12169
▁modes	-12170
▁laptop	-12171
▁Fantasy	-12172
▁accepting	-12173
ported	-12174
▁Solar	-12175
reshold	-12176
vironments	-12177
▁Convention	-12178
71	-12179
GS	-12180
adi	-12181
acent	-12182
-13	-12183
config	-12184
▁neighbour	-12185
▁constitutional	-12186
mine	-12187
▁lean	-12188
▁Wales	-12189
▁corners	-12190
▁ceremony	-12191
INK	-12192
▁Od	-12193
▁Job	-12194
▁portray	-12195
▁LLC	-12196
▁compensation	-12197
MM	-12198
eta	-12199
ungle	-12200
▁bail	-12201
▁Switch	-12202
email	-12203
▁Trek	-12204
▁shed	-12205
hes	-12206
OUND	-12207
wart	-12208
▁Jump	-12209
▁logs	-12210
normal	-12211
▁asset	-12212
▁brave	-12213
▁grace	-12214
▁triple	-12215
▁deserve	-12216
▁substantial	-12217
▁psychological	-12218
2:	-12219
vernment	-12220
▁Challenge	-12221
▁headlines	-12222
▁encl	-12223
▁compliance	-12224
▁bio	-12225
▁Indones	-12226
▁Loading	-12227
▁reviewed	-12228
thal	-12229
▁vague	-12230
▁smell	-12231
istically	-12232
keley	-12233
▁Simple	-12234
PO	-12235
▁Ja	-12236
icker	-12237
▁toys	-12238
▁Thread	-12239
▁anxiety	-12240
Trump	-12241
▁Stewart	-12242
uj	-12243
▁FI	-12244
▁dupl	-12245
▁promoted	-12246
▁Ian	-12247
▁Boss	-12248
▁studied	-12249
-04	-12250
▁1994	-12251
▁frank	-12252
▁Document	-12253
▁engineers	-12254
▁attractive	-12255
▁Vik	-12256
▁Benn	-12257
▁desired	-12258
▁regarded	-12259
.95	-12260
▁Ele	-12261
▁Luke	-12262
▁leak	-12263
▁Dougl	-12264
▁batch	-12265
▁Operation	-12266
▁JO	-12267
▁Kids	-12268
looking	-12269
▁receiver	-12270
▁bulk	-12271
▁sponsored	-12272
acted	-12273
▁maxim	-12274
▁graphic	-12275
▁Mitchell	-12276
▁encouraging	-12277
▁Buck	-12278
▁slic	-12279
▁duties	-12280
▁involves	-12281
▁philosophy	-12282
▁Cand	-12283
▁JUST	-12284
▁spare	-12285
▁Antonio	-12286
▁representing	-12287
ressive	-12288
▁celebrity	-12289
▁widespread	-12290
CA	-12291
▁affordable	-12292
▁participating	-12293
itate	-12294
▁fucked	-12295
▁exhaust	-12296
arts	-12297
ighth	-12298
▁Pros	-12299
▁Griff	-12300
▁meter	-12301
▁reforms	-12302
▁consensus	-12303
!'	-12304
abel	-12305
▁voc	-12306
uminum	-12307
▁2010,	-12308
▁squee	-12309
▁reserve	-12310
▁boyfriend	-12311
▁Environmental	-12312
render	-12313
main	-12314
null	-12315
▁(6	-12316
ository	-12317
▁carries	-12318
space	-12319
▁styles	-12320
▁bizarre	-12321
lon	-12322
heads	-12323
▁rings	-12324
ENS	-12325
nut	-12326
▁Marx	-12327
▁bands	-12328
▁rebuild	-12329
spot	-12330
▁lake	-12331
▁Ultimate	-12332
rons	-12333
▁1950	-12334
▁Doug	-12335
▁casting	-12336
owned	-12337
▁Metal	-12338
▁dimin	-12339
▁penet	-12340
▁delicious	-12341
-)	-12342
cott	-12343
Key	-12344
ifi	-12345
ping	-12346
mans	-12347
▁fits	-12348
▁humor	-12349
▁unfair	-12350
▁Updated	-12351
▁combine	-12352
▁Universal	-12353
bery	-12354
▁Seven	-12355
▁representation	-12356
▁forgotten	-12357
iden	-12358
▁AMD	-12359
▁Nap	-12360
▁Vent	-12361
▁elabor	-12362
%.	-12363
YS	-12364
▁Pain	-12365
▁bombing	-12366
▁briefly	-12367
▁Tennessee	-12368
-02	-12369
-03	-12370
PORT	-12371
commun	-12372
▁Robin	-12373
▁Terror	-12374
▁Swedish	-12375
IND	-12376
enna	-12377
ocity	-12378
▁Crew	-12379
▁safely	-12380
▁Address	-12381
▁settled	-12382
▁torture	-12383
▁Marshall	-12384
▁Whatever	-12385
▁pollution	-12386
▁81	-12387
unks	-12388
▁Soon	-12389
▁resign	-12390
▁highway	-12391
-08	-12392
piece	-12393
▁hood	-12394
▁2017,	-12395
▁overnight	-12396
olitan	-12397
lie	-12398
▁Hours	-12399
section	-12400
▁invite	-12401
▁appearing	-12402
▁diplomatic	-12403
▁suspension	-12404
"),	-12405
asi	-12406
▁Due	-12407
ixture	-12408
▁Monster	-12409
▁answered	-12410
▁publishing	-12411
▁bones	-12412
▁Almost	-12413
▁Systems	-12414
▁Virtual	-12415
▁striking	-12416
▁temperatures	-12417
gt	-12418
▁Eve	-12419
human	-12420
ANG	-12421
ecks	-12422
▁cab	-12423
ername	-12424
▁winners	-12425
▁Lawrence	-12426
▁contacts	-12427
='	-12428
oret	-12429
downs	-12430
▁forgot	-12431
▁bankrupt	-12432
▁Political	-12433
▁preparing	-12434
▁spreading	-12435
▁9.	-12436
▁160	-12437
▁Pred	-12438
▁diamond	-12439
▁tum	-12440
▁Ruby	-12441
▁Zone	-12442
▁jumped	-12443
▁owns	-12444
▁dragon	-12445
▁meaningful	-12446
▁highlighted	-12447
3:	-12448
avan	-12449
/2016	-12450
▁journalism	-12451
mid	-12452
vell	-12453
▁crown	-12454
▁Brandon	-12455
▁accuracy	-12456
▁dramatic	-12457
▁Additional	-12458
▁Pittsburgh	-12459
ango	-12460
▁rever	-12461
founder	-12462
▁absurd	-12463
urse	-12464
ifiers	-12465
▁Chrome	-12466
▁partial	-12467
▁constrain	-12468
▁Hawaii	-12469
appropri	-12470
/200	-12471
▁Len	-12472
▁aqu	-12473
▁Keith	-12474
▁ancest	-12475
▁sticks	-12476
▁suitable	-12477
▁vertical	-12478
▁surprisingly	-12479
▁tast	-12480
▁laser	-12481
▁newsletter	-12482
▁nerv	-12483
▁distingu	-12484
▁alternate	-12485
▁expecting	-12486
▁guaranteed	-12487
▁gau	-12488
▁neat	-12489
▁apple	-12490
▁pound	-12491
▁acquis	-12492
▁analog	-12493
▁disappear	-12494
▁VM	-12495
▁BUT	-12496
vation	-12497
▁Perry	-12498
▁invalid	-12499
▁moderate	-12500
▁placement	-12501
:59	-12502
const	-12503
▁availability	-12504
tv	-12505
icating	-12506
▁economics	-12507
▁provisions	-12508
gmail	-12509
▁Kirk	-12510
▁fare	-12511
ductive	-12512
▁purple	-12513
ANK	-12514
ride	-12515
▁plugin	-12516
▁stating	-12517
▁paragraph	-12518
▁CT	-12519
▁bloody	-12520
▁whilst	-12521
▁backing	-12522
"]	-12523
▁PER	-12524
▁lone	-12525
▁classified	-12526
▁Barry	-12527
▁nodes	-12528
▁Option	-12529
▁developments	-12530
pop	-12531
erto	-12532
▁Integr	-12533
▁poorly	-12534
▁Imagine	-12535
▁counting	-12536
pres	-12537
school	-12538
▁inhib	-12539
▁warming	-12540
pos	-12541
▁GPS	-12542
▁tobacco	-12543
▁independence	-12544
▁Links	-12545
▁overwhelming	-12546
!).	-12547
dale	-12548
atson	-12549
elect	-12550
▁ward	-12551
▁Baker	-12552
▁drown	-12553
▁civilian	-12554
▁suggestion	-12555
Sm	-12556
iga	-12557
rors	-12558
▁rug	-12559
▁nuts	-12560
▁Danny	-12561
▁subtle	-12562
▁Earlier	-12563
▁Chairman	-12564
▁crossing	-12565
▁experimental	-12566
▁controversy	-12567
▁Kle	-12568
▁lap	-12569
▁Ring	-12570
▁login	-12571
▁interior	-12572
▁EP	-12573
▁Ku	-12574
Text	-12575
▁depos	-12576
▁Chance	-12577
▁Greece	-12578
▁Richards	-12579
▁appearances	-12580
▁interviewed	-12581
▁carrier	-12582
▁sensor	-12583
▁Orlando	-12584
▁maintaining	-12585
Getty	-12586
asket	-12587
▁drain	-12588
▁Effect	-12589
▁google	-12590
▁civilians	-12591
▁Pap	-12592
▁hunt	-12593
urrent	-12594
▁Visit	-12595
▁speeds	-12596
▁Ay	-12597
000000	-12598
▁Movie	-12599
▁ster	-12600
▁peers	-12601
olo	-12602
▁DS	-12603
ivan	-12604
▁billions	-12605
▁engagement	-12606
ERY	-12607
black	-12608
stage	-12609
▁mush	-12610
▁vibr	-12611
▁Woman	-12612
▁Batman	-12613
cp	-12614
Per	-12615
▁Kam	-12616
▁Hunt	-12617
▁Repl	-12618
▁venue	-12619
▁insist	-12620
▁exchanges	-12621
non	-12622
engu	-12623
instein	-12624
▁editing	-12625
▁schemes	-12626
▁executed	-12627
▁gameplay	-12628
▁operators	-12629
▁Raw	-12630
▁Shel	-12631
/13	-12632
pload	-12633
▁parks	-12634
▁ethics	-12635
▁formula	-12636
▁questioned	-12637
eded	-12638
▁legendary	-12639
News	-12640
▁Clay	-12641
▁concepts	-12642
▁Vel	-12643
▁Lion	-12644
uously	-12645
▁cinem	-12646
▁biological	-12647
▁unve	-12648
▁urged	-12649
del	-12650
itis	-12651
▁retrie	-12652
▁pricing	-12653
▁whereas	-12654
▁Exchange	-12655
▁binary	-12656
▁grants	-12657
▁000	-12658
▁grave	-12659
▁disable	-12660
/2017	-12661
uffer	-12662
▁gifts	-12663
deb	-12664
▁Terry	-12665
inction	-12666
▁scroll	-12667
▁Brothers	-12668
▁identification	-12669
kers	-12670
▁float	-12671
▁relation	-12672
▁spoil	-12673
▁conservatives	-12674
IGN	-12675
rary	-12676
LEASE	-12677
large	-12678
▁fluid	-12679
▁dispos	-12680
▁outcomes	-12681
Dis	-12682
▁Pel	-12683
▁Basic	-12684
▁Coach	-12685
▁suits	-12686
▁evident	-12687
▁senator	-12688
▁chains	-12689
▁rocket	-12690
sa	-12691
▁BU	-12692
mouth	-12693
▁dare	-12694
theless	-12695
▁viewed	-12696
▁whistle	-12697
▁Robinson	-12698
OSE	-12699
Out	-12700
▁Trad	-12701
▁panic	-12702
▁wrapped	-12703
▁rendering	-12704
▁acknowledged	-12705
unning	-12706
ifferent	-12707
bad	-12708
▁anime	-12709
▁harsh	-12710
▁accord	-12711
▁Monitor	-12712
▁rod	-12713
▁unpre	-12714
▁glasses	-12715
▁generous	-12716
▁confusion	-12717
▁telephone	-12718
▁transparency	-12719
eric	-12720
opes	-12721
pless	-12722
▁grey	-12723
▁healing	-12724
▁rhetoric	-12725
▁sys	-12726
▁masc	-12727
▁sail	-12728
essage	-12729
▁drone	-12730
,,	-12731
Some	-12732
onge	-12733
▁SER	-12734
ricts	-12735
itement	-12736
▁unders	-12737
▁climbing	-12738
▁RA	-12739
▁dated	-12740
▁maker	-12741
▁probe	-12742
million	-12743
ello	-12744
▁Draw	-12745
▁brains	-12746
▁converted	-12747
Ab	-12748
call	-12749
▁nominee	-12750
▁depression	-12751
▁describing	-12752
▁Hann	-12753
▁sits	-12754
▁organis	-12755
VA	-12756
issa	-12757
▁Isa	-12758
▁Used	-12759
▁wand	-12760
▁Beast	-12761
▁EVERY	-12762
▁interpre	-12763
▁subscrib	-12764
▁metaph	-12765
▁environments	-12766
▁$30	-12767
▁Birth	-12768
▁loving	-12769
————	-12770
▁heal	-12771
vision	-12772
istical	-12773
▁investigating	-12774
▁bite	-12775
▁mins	-12776
▁slip	-12777
▁Subsc	-12778
folio	-12779
▁diam	-12780
▁Rather	-12781
▁stomach	-12782
▁occasional	-12783
▁demonstrate	-12784
)-	-12785
kh	-12786
▁lens	-12787
▁exped	-12788
▁0.1	-12789
▁900	-12790
▁TIME	-12791
▁Colon	-12792
▁Minor	-12793
▁newer	-12794
▁jurisd	-12795
▁agreements	-12796
▁documented	-12797
▁31,	-12798
▁1992	-12799
official	-12800
▁accomplish	-12801
-25	-12802
ulum	-12803
▁Sweet	-12804
▁fighter	-12805
pal	-12806
▁Ye	-12807
▁$200	-12808
unct	-12809
range	-12810
▁pose	-12811
▁vocal	-12812
▁interf	-12813
▁Cab	-12814
▁font	-12815
▁rental	-12816
Co	-12817
/18	-12818
▁Raid	-12819
▁Dynam	-12820
▁radar	-12821
▁referring	-12822
▁acceptance	-12823
▁cul	-12824
▁1993	-12825
▁dread	-12826
▁disconn	-12827
conscious	-12828
▁proposals	-12829
State	-12830
▁Investig	-12831
▁witnesses	-12832
▁approaches	-12833
▁possibilities	-12834
-30	-12835
▁Marg	-12836
ielder	-12837
▁Prior	-12838
▁grain	-12839
▁rotation	-12840
ME	-12841
▁bast	-12842
▁curs	-12843
▁Features	-12844
▁congressional	-12845
▁Ni	-12846
fold	-12847
direct	-12848
▁tempt	-12849
▁header	-12850
▁tunnel	-12851
▁Rew	-12852
▁Billy	-12853
▁twist	-12854
▁pension	-12855
▁populations	-12856
ABLE	-12857
rust	-12858
▁Dra	-12859
▁chick	-12860
▁Memorial	-12861
FR	-12862
jan	-12863
tech	-12864
content	-12865
▁Dakota	-12866
▁strings	-12867
Mon	-12868
big	-12869
▁honestly	-12870
▁operated	-12871
▁Nelson	-12872
▁closest	-12873
ju	-12874
mac	-12875
▁((	-12876
▁VA	-12877
▁viral	-12878
▁worthy	-12879
xit	-12880
tics	-12881
▁boom	-12882
▁Analy	-12883
friendly	-12884
Trans	-12885
▁seal	-12886
keeper	-12887
ulates	-12888
▁legally	-12889
▁Pentagon	-12890
▁Nash	-12891
rocery	-12892
▁hence	-12893
osc	-12894
ulk	-12895
▁FM	-12896
▁TX	-12897
ENCE	-12898
umbs	-12899
▁nest	-12900
icular	-12901
▁beings	-12902
▁settle	-12903
▁titled	-12904
▁residential	-12905
▁demonstrated	-12906
HD	-12907
ISS	-12908
▁KB	-12909
▁Tob	-12910
▁flip	-12911
▁rats	-12912
▁mystery	-12913
▁criminals	-12914
▁restricted	-12915
eem	-12916
utt	-12917
▁adap	-12918
▁eyeb	-12919
▁arena	-12920
airy	-12921
▁mas	-12922
▁lazy	-12923
▁Picture	-12924
▁scenarios	-12925
nan	-12926
riven	-12927
▁MUST	-12928
▁Raven	-12929
md	-12930
▁EL	-12931
▁trop	-12932
▁assemb	-12933
▁principal	-12934
eals	-12935
▁exclusively	-12936
aeda	-12937
ucked	-12938
▁Jake	-12939
adata	-12940
anches	-12941
▁Harvey	-12942
▁slaughter	-12943
▁Championship	-12944
▁flew	-12945
▁Delete	-12946
▁Additionally	-12947
▁fract	-12948
initely	-12949
owski	-12950
current	-12951
mel	-12952
▁sells	-12953
▁Weather	-12954
▁UC	-12955
▁horm	-12956
▁contrad	-12957
02	-12958
▁Math	-12959
▁Extra	-12960
▁magical	-12961
▁astron	-12962
ISH	-12963
▁WHAT	-12964
▁ampl	-12965
ashi	-12966
▁coat	-12967
▁cares	-12968
▁mountains	-12969
▁mechanical	-12970
guard	-12971
▁nail	-12972
iggers	-12973
idation	-12974
▁scam	-12975
▁Style	-12976
prising	-12977
▁placing	-12978
irk	-12979
▁CAR	-12980
armed	-12981
▁Iraqi	-12982
▁buried	-12983
▁applies	-12984
▁LI	-12985
▁Deputy	-12986
edu	-12987
▁ber	-12988
▁9/11	-12989
payers	-12990
aughters	-12991
▁Scottish	-12992
ATA	-12993
eway	-12994
orks	-12995
▁(12	-12996
▁fib	-12997
▁meg	-12998
▁filing	-12999
▁sculpt	-13000
igma	-13001
rowing	-13002
▁pione	-13003
▁criteria	-13004
▁deployed	-13005
empt	-13006
Inter	-13007
▁Kyle	-13008
▁incl	-13009
▁lane	-13010
▁proc	-13011
▁whis	-13012
ennial	-13013
system	-13014
itivity	-13015
▁Currently	-13016
TL	-13017
▁Karl	-13018
▁riot	-13019
▁shocked	-13020
OUS	-13021
▁prospects	-13022
▁Sor	-13023
▁prox	-13024
▁etern	-13025
▁Analysis	-13026
▁suspicious	-13027
team	-13028
google	-13029
▁dys	-13030
▁Warner	-13031
▁archive	-13032
▁enjoying	-13033
Def	-13034
▁gene	-13035
▁Susan	-13036
▁cargo	-13037
▁artificial	-13038
▁apt	-13039
▁shocking	-13040
/.	-13041
affe	-13042
▁hier	-13043
▁boring	-13044
▁ta	-13045
▁Kel	-13046
▁Morris	-13047
▁Running	-13048
▁accompanied	-13049
:"	-13050
rus	-13051
EMENT	-13052
▁immune	-13053
uits	-13054
payer	-13055
▁Poor	-13056
▁wings	-13057
▁hiding	-13058
▁noting	-13059
▁sealed	-13060
III	-13061
ews	-13062
▁std	-13063
▁trace	-13064
pes	-13065
▁zip	-13066
▁Harper	-13067
▁tongue	-13068
▁Highway	-13069
▁cabinet	-13070
▁cartoon	-13071
▁Medicine	-13072
▁acquired	-13073
▁Organization	-13074
▁Example	-13075
▁vendors	-13076
▁unle	-13077
▁freely	-13078
▁swimming	-13079
ntax	-13080
▁irn	-13081
World	-13082
gie	-13083
iere	-13084
green	-13085
▁Youth	-13086
▁predicted	-13087
▁smartphone	-13088
▁reass	-13089
▁flower	-13090
▁intake	-13091
▁Douglas	-13092
▁dependent	-13093
▁contemporary	-13094
names	-13095
▁outdoor	-13096
▁newspapers	-13097
▁PP	-13098
▁Poké	-13099
▁deleted	-13100
Dr	-13101
ean	-13102
▁mud	-13103
terror	-13104
▁ought	-13105
▁Multip	-13106
▁refugee	-13107
▁focusing	-13108
▁printing	-13109
▁Louisiana	-13110
▁purchasing	-13111
▁Average	-13112
▁Relations	-13113
▁mamm	-13114
▁Ronald	-13115
▁donors	-13116
▁Berkeley	-13117
5)	-13118
▁128	-13119
▁Num	-13120
▁Safe	-13121
▁hint	-13122
▁rehab	-13123
▁occasions	-13124
▁911	-13125
▁Questions	-13126
odox	-13127
▁crop	-13128
▁weakness	-13129
▁Deal	-13130
▁sync	-13131
▁pickup	-13132
▁Stories	-13133
▁suspects	-13134
▁inventory	-13135
▁replacing	-13136
▁specialist	-13137
gging	-13138
▁Late	-13139
▁Niger	-13140
▁wanna	-13141
anim	-13142
▁Lay	-13143
▁joins	-13144
▁assumed	-13145
▁screening	-13146
▁pond	-13147
▁sons	-13148
▁incorrect	-13149
amac	-13150
▁Neil	-13151
▁Liter	-13152
▁pretend	-13153
▁switching	-13154
▁respectively	-13155
txt	-13156
▁fame	-13157
▁Madrid	-13158
▁soldier	-13159
▁appointed	-13160
▁challenged	-13161
ulent	-13162
▁Nort	-13163
▁locals	-13164
▁disagree	-13165
ologically	-13166
▁reactions	-13167
▁Cos	-13168
▁blamed	-13169
▁Princess	-13170
▁demanded	-13171
▁residence	-13172
▁nationwide	-13173
▁constructed	-13174
▁Tool	-13175
▁mathem	-13176
▁streams	-13177
▁1.3	-13178
gement	-13179
▁sisters	-13180
ipt	-13181
▁License	-13182
▁blockchain	-13183
▁BS	-13184
▁sexy	-13185
▁dealt	-13186
▁glory	-13187
▁resid	-13188
▁comics	-13189
▁patches	-13190
▁abstract	-13191
▁Charlotte	-13192
▁Ul	-13193
Image	-13194
▁pant	-13195
▁Termin	-13196
▁physics	-13197
/6	-13198
ieg	-13199
sim	-13200
▁complain	-13201
▁enterprise	-13202
▁Sid	-13203
▁combo	-13204
▁mechanisms	-13205
▁submission	-13206
cup	-13207
▁DON	-13208
stock	-13209
▁overd	-13210
▁approached	-13211
▁Jar	-13212
▁lbs	-13213
▁Weekly	-13214
▁Reserve	-13215
▁GN	-13216
oler	-13217
▁associate	-13218
▁tu	-13219
ttes	-13220
▁dece	-13221
▁pale	-13222
▁morph	-13223
▁Object	-13224
▁Spider	-13225
▁Actually	-13226
▁conflicts	-13227
▁questioning	-13228
▁Eye	-13229
▁Random	-13230
specific	-13231
root	-13232
▁Lot	-13233
▁Going	-13234
▁spectrum	-13235
pub	-13236
stration	-13237
▁competing	-13238
onts	-13239
▁Krist	-13240
▁patrol	-13241
▁shifts	-13242
olutions	-13243
▁laughing	-13244
▁migrants	-13245
▁attributes	-13246
▁thats	-13247
▁cos	-13248
▁spo	-13249
cycle	-13250
▁cultiv	-13251
▁caution	-13252
apor	-13253
▁Ign	-13254
▁Asked	-13255
▁paths	-13256
▁Flight	-13257
▁imposed	-13258
▁engaging	-13259
▁witnessed	-13260
oshi	-13261
▁Beng	-13262
▁aims	-13263
▁abund	-13264
▁courage	-13265
▁batteries	-13266
▁<<	-13267
idges	-13268
▁Drug	-13269
▁Venez	-13270
▁exploit	-13271
▁relatives	-13272
chest	-13273
▁gray	-13274
▁spaw	-13275
▁tension	-13276
▁texture	-13277
▁Hamp	-13278
▁alpha	-13279
▁scrutiny	-13280
.50	-13281
tem	-13282
▁dign	-13283
ferred	-13284
▁algorithm	-13285
etc	-13286
▁Prep	-13287
attery	-13288
▁Delhi	-13289
▁Students	-13290
▁sexually	-13291
▁labels	-13292
▁championship	-13293
▁weed	-13294
compet	-13295
etically	-13296
▁conventional	-13297
gary	-13298
▁Mini	-13299
People	-13300
▁seeks	-13301
▁contam	-13302
▁designated	-13303
▁OC	-13304
▁Edd	-13305
▁mast	-13306
▁ultra	-13307
▁Nathan	-13308
▁JavaScript	-13309
RS	-13310
▁6-	-13311
▁XP	-13312
▁Bomb	-13313
ervation	-13314
2-	-13315
enz	-13316
gue	-13317
nex	-13318
▁Rece	-13319
▁Legal	-13320
▁Studios	-13321
Pal	-13322
▁Planet	-13323
▁Taiwan	-13324
▁compass	-13325
▁feminist	-13326
▁responding	-13327
ripp	-13328
▁REC	-13329
▁steady	-13330
▁locally	-13331
omi	-13332
▁5:	-13333
borne	-13334
▁Flag	-13335
▁rect	-13336
▁worn	-13337
▁cancel	-13338
▁wealthy	-13339
▁precisely	-13340
ocy	-13341
▁cord	-13342
▁Evans	-13343
▁awkward	-13344
▁generic	-13345
▁dip	-13346
▁stal	-13347
minded	-13348
▁await	-13349
▁Nobody	-13350
▁quarters	-13351
▁struggles	-13352
avasc	-13353
▁Arthur	-13354
▁nightmare	-13355
▁manufacturers	-13356
mus	-13357
written	-13358
▁Culture	-13359
.(	-13360
▁cruel	-13361
];	-13362
▁Tyler	-13363
▁Medium	-13364
▁Language	-13365
▁lun	-13366
▁Lane	-13367
econom	-13368
▁2,000	-13369
▁wider	-13370
station	-13371
▁Strong	-13372
▁subscribe	-13373
iop	-13374
▁nic	-13375
▁spy	-13376
ename	-13377
ostic	-13378
▁Magn	-13379
▁slots	-13380
▁refers	-13381
▁Counter	-13382
▁Answ	-13383
▁booth	-13384
▁nasty	-13385
▁embedded	-13386
▁Shan	-13387
▁Portug	-13388
▁knocked	-13389
▁pleased	-13390
▁posters	-13391
▁catching	-13392
▁Melbourne	-13393
▁ul	-13394
These	-13395
▁Khan	-13396
▁lung	-13397
▁Tiger	-13398
▁Letter	-13399
▁Probably	-13400
▁annoying	-13401
▁fu	-13402
▁GRE	-13403
being	-13404
▁Yahoo	-13405
▁Recomm	-13406
▁Climate	-13407
▁chamber	-13408
▁balanced	-13409
▁Commander	-13410
▁Fur	-13411
▁Sel	-13412
▁Reid	-13413
▁torn	-13414
▁triv	-13415
holder	-13416
▁sheep	-13417
▁Pokemon	-13418
▁needing	-13419
somet	-13420
▁wont	-13421
ulative	-13422
▁Father	-13423
ceptions	-13424
▁Regional	-13425
▁equipped	-13426
▁studying	-13427
▁disturbing	-13428
Yes	-13429
note	-13430
▁Ori	-13431
frame	-13432
▁overt	-13433
▁tin	-13434
ossil	-13435
▁excessive	-13436
▁libraries	-13437
also	-13438
▁bass	-13439
▁mysterious	-13440
▁unnecessary	-13441
olk	-13442
▁Rule	-13443
▁alike	-13444
ointing	-13445
▁Either	-13446
onde	-13447
▁rou	-13448
▁pause	-13449
▁unfortunately	-13450
Dec	-13451
Station	-13452
▁buyers	-13453
▁wisdom	-13454
▁prompted	-13455
▁WA	-13456
best	-13457
▁Agent	-13458
▁Leban	-13459
western	-13460
ordinary	-13461
oos	-13462
imens	-13463
▁vegetables	-13464
ilia	-13465
▁launching	-13466
MI	-13467
Par	-13468
▁Stanford	-13469
▁enhanced	-13470
ampa	-13471
azed	-13472
▁Tweet	-13473
▁Compet	-13474
▁Million	-13475
Code	-13476
▁Lisa	-13477
▁stocks	-13478
▁Si	-13479
onia	-13480
▁Bec	-13481
▁Tesla	-13482
▁oxygen	-13483
mt	-13484
iko	-13485
orp	-13486
▁Nar	-13487
incial	-13488
▁declar	-13489
script	-13490
▁correl	-13491
WS	-13492
jar	-13493
prom	-13494
▁cit	-13495
▁Pinterest	-13496
HO	-13497
▁FAQ	-13498
▁Bobby	-13499
▁Quant	-13500
▁tuned	-13501
▁Columbus	-13502
▁Originally	-13503
▁Kickstarter	-13504
▁Mut	-13505
▁Pos	-13506
▁Rare	-13507
▁Moreover	-13508
▁FF	-13509
▁PT	-13510
▁hyd	-13511
aired	-13512
▁hoped	-13513
▁Besides	-13514
▁quietly	-13515
▁privilege	-13516
Let	-13517
▁Cass	-13518
▁Bos	-13519
▁tooth	-13520
és	-13521
▁PRE	-13522
▁Hend	-13523
▁sized	-13524
▁Videos	-13525
▁intrig	-13526
avascript	-13527
▁nonsense	-13528
etta	-13529
▁Zen	-13530
▁Cant	-13531
▁Tact	-13532
▁essay	-13533
▁Mississ	-13534
▁Movement	-13535
▁mentions	-13536
▁Shar	-13537
▁grat	-13538
▁polar	-13539
▁Parker	-13540
▁Lev	-13541
▁Vlad	-13542
▁anth	-13543
▁Ultra	-13544
▁comed	-13545
▁reminded	-13546
▁0.5	-13547
▁secrets	-13548
rod	-13549
▁(8	-13550
▁bored	-13551
▁commander	-13552
alin	-13553
▁impressed	-13554
IAN	-13555
▁eg	-13556
brew	-13557
▁Anc	-13558
because	-13559
▁venture	-13560
▁translated	-13561
utical	-13562
▁empire	-13563
▁Begin	-13564
winning	-13565
▁colleg	-13566
outheast	-13567
▁athletic	-13568
▁insisted	-13569
▁permitted	-13570
▁gh	-13571
▁Ald	-13572
speed	-13573
▁reson	-13574
▁advised	-13575
▁Venezuel	-13576
site	-13577
▁partially	-13578
ahu	-13579
jamin	-13580
▁Beth	-13581
▁oral	-13582
▁kicking	-13583
▁toll	-13584
▁slave	-13585
▁mechanics	-13586
}}	-13587
▁Rs	-13588
tube	-13589
uffy	-13590
▁Tab	-13591
ships	-13592
▁outer	-13593
▁Character	-13594
▁Meg	-13595
▁Elite	-13596
▁spawn	-13597
▁Fisher	-13598
▁binding	-13599
▁lyr	-13600
▁dick	-13601
iability	-13602
▁initiatives	-13603
▁Rud	-13604
health	-13605
▁Crystal	-13606
▁delivering	-13607
▁transmission	-13608
▁Rot	-13609
▁Ord	-13610
▁Awards	-13611
▁adviser	-13612
qual	-13613
iances	-13614
▁sovere	-13615
▁Buffalo	-13616
▁Interview	-13617
/9	-13618
rained	-13619
▁Reports	-13620
▁trusted	-13621
▁uncomfort	-13622
.12	-13623
▁Sacr	-13624
antages	-13625
▁guides	-13626
▁trapped	-13627
▁OH	-13628
stan	-13629
atcher	-13630
osystem	-13631
▁blacks	-13632
▁endors	-13633
▁municipal	-13634
BE	-13635
igo	-13636
▁slee	-13637
▁Albert	-13638
▁divers	-13639
▁couples	-13640
▁epid	-13641
▁mall	-13642
▁misc	-13643
▁infant	-13644
such	-13645
▁Amy	-13646
▁Kate	-13647
▁fright	-13648
▁refund	-13649
▁ideology	-13650
▁Yu	-13651
orneys	-13652
ulously	-13653
▁troubles	-13654
wait	-13655
▁!!!	-13656
▁Rating	-13657
▁lightning	-13658
oku	-13659
usalem	-13660
▁volunt	-13661
bone	-13662
▁Pic	-13663
▁triggered	-13664
1:	-13665
ippi	-13666
▁Hem	-13667
▁tel	-13668
▁Sale	-13669
izable	-13670
▁laying	-13671
▁python	-13672
▁wooden	-13673
▁implications	-13674
owell	-13675
▁Wing	-13676
▁blogs	-13677
▁blown	-13678
▁Theatre	-13679
▁Coalition	-13680
▁priorities	-13681
▁remarkable	-13682
▁KE	-13683
▁bears	-13684
▁wasted	-13685
▁pregnancy	-13686
▁Experience	-13687
say	-13688
▁Lar	-13689
▁directors	-13690
▁institution	-13691
▁Congressional	-13692
TON	-13693
sign	-13694
uded	-13695
neath	-13696
▁COMP	-13697
▁Leave	-13698
▁Subject	-13699
▁preference	-13700
umph	-13701
▁ACC	-13702
▁Mob	-13703
▁pie	-13704
▁mega	-13705
▁farms	-13706
▁Netflix	-13707
▁publisher	-13708
▁FT	-13709
azines	-13710
▁Memory	-13711
▁newest	-13712
cedented	-13713
▁Indians	-13714
▁HS	-13715
▁TOD	-13716
uates	-13717
▁seam	-13718
▁thirty	-13719
▁stealing	-13720
▁RAM	-13721
▁Finance	-13722
▁identical	-13723
▁Advertisements	-13724
oping	-13725
▁Bros	-13726
▁2011.	-13727
▁prayer	-13728
▁assured	-13729
▁facebook	-13730
▁innovative	-13731
tf	-13732
▁Fried	-13733
reement	-13734
oro	-13735
▁Eb	-13736
▁(18	-13737
▁Sud	-13738
▁buses	-13739
▁Legisl	-13740
▁Success	-13741
▁Summary	-13742
▁Ukrainian	-13743
▁radiation	-13744
▁Communications	-13745
rogen	-13746
mother	-13747
▁inhab	-13748
irlines	-13749
▁Premium	-13750
▁addiction	-13751
:55	-13752
▁acres	-13753
▁SY	-13754
bear	-13755
▁90%	-13756
▁Buzz	-13757
▁Twin	-13758
▁Sales	-13759
▁photographs	-13760
▁Cit	-13761
▁unst	-13762
▁climb	-13763
building	-13764
rien	-13765
▁gard	-13766
▁cycles	-13767
▁Franklin	-13768
-06	-13769
pur	-13770
estone	-13771
▁Oxford	-13772
▁traged	-13773
▁afterwards	-13774
▁sustainable	-13775
bc	-13776
rative	-13777
▁Mason	-13778
▁recalled	-13779
▁disclosure	-13780
03	-13781
GM	-13782
▁Bund	-13783
▁lobb	-13784
▁tolerance	-13785
▁Gaza	-13786
▁rust	-13787
▁Heaven	-13788
▁spoken	-13789
▁hacking	-13790
▁suppose	-13791
▁wounded	-13792
▁eligible	-13793
▁separated	-13794
▁!=	-13795
▁dive	-13796
arians	-13797
▁Stein	-13798
mentation	-13799
▁Therefore	-13800
▁consciousness	-13801
amas	-13802
▁Aer	-13803
▁Fail	-13804
▁Stage	-13805
▁inequ	-13806
▁habits	-13807
▁precious	-13808
▁competitors	-13809
iology	-13810
▁reign	-13811
▁Polish	-13812
▁lesser	-13813
▁Liberty	-13814
his	-13815
ubs	-13816
acht	-13817
icut	-13818
liest	-13819
hammad	-13820
resses	-13821
▁researcher	-13822
▁compatibility	-13823
kel	-13824
▁125	-13825
inery	-13826
▁Pier	-13827
atherine	-13828
▁lifting	-13829
▁analysts	-13830
▁Fo	-13831
▁DAY	-13832
▁melt	-13833
amacare	-13834
▁ballot	-13835
▁arriving	-13836
▁authorized	-13837
See	-13838
uler	-13839
▁recipes	-13840
:20	-13841
zip	-13842
omes	-13843
▁Copy	-13844
▁Config	-13845
▁Someone	-13846
▁CV	-13847
anked	-13848
▁NOTE	-13849
▁cater	-13850
▁filters	-13851
eat	-13852
▁Huff	-13853
▁dism	-13854
▁offline	-13855
▁opposing	-13856
▁0,	-13857
Source	-13858
▁exploration	-13859
▁concentration	-13860
▁Error	-13861
▁horses	-13862
aceutical	-13863
▁Politics	-13864
▁trillion	-13865
▁Production	-13866
ND	-13867
Ps	-13868
kens	-13869
▁raises	-13870
▁continuous	-13871
NET	-13872
▁hij	-13873
izzard	-13874
▁Crypt	-13875
▁qualified	-13876
▁sophistic	-13877
▁cd	-13878
▁Brig	-13879
usions	-13880
forward	-13881
▁equity	-13882
▁Bloomberg	-13883
▁attendance	-13884
tml	-13885
▁MI	-13886
▁Range	-13887
▁scary	-13888
▁Watson	-13889
▁invisible	-13890
▁instruction	-13891
▁transferred	-13892
▁Heavy	-13893
▁Solid	-13894
▁souls	-13895
▁Commons	-13896
▁('	-13897
▁Engineering	-13898
item	-13899
▁crying	-13900
esperson	-13901
▁consultant	-13902
aton	-13903
▁Pun	-13904
▁Alberta	-13905
▁headline	-13906
▁wherever	-13907
▁30%	-13908
▁Brun	-13909
▁swap	-13910
▁execute	-13911
▁certificate	-13912
▁interpretation	-13913
▁Voice	-13914
▁ministers	-13915
cia	-13916
Conn	-13917
▁Plant	-13918
▁tv	-13919
▁Squad	-13920
▁curve	-13921
▁Display	-13922
▁confirmation	-13923
▁seized	-13924
▁Olympics	-13925
hu	-13926
bag	-13927
lett	-13928
▁WHO	-13929
▁pel	-13930
every	-13931
ateful	-13932
▁Cancer	-13933
▁analys	-13934
▁decrease	-13935
dict	-13936
▁trump	-13937
▁Junior	-13938
▁autonom	-13939
▁Kan	-13940
▁Crown	-13941
▁Demon	-13942
etheless	-13943
▁alliance	-13944
▁horizont	-13945
▁manually	-13946
=1	-13947
▁editors	-13948
▁HIV	-13949
▁Sport	-13950
▁marine	-13951
▁embrace	-13952
▁nervous	-13953
▁trait	-13954
▁riders	-13955
▁ignoring	-13956
▁expertise	-13957
▁HR	-13958
▁crystal	-13959
▁Notice	-13960
▁garage	-13961
▁Rou	-13962
people	-13963
▁Dennis	-13964
▁nicely	-13965
▁artwork	-13966
▁churches	-13967
08	-13968
▁BT	-13969
▁TS	-13970
▁Male	-13971
▁crossed	-13972
tc	-13973
▁$9	-13974
▁propri	-13975
▁Egg	-13976
third	-13977
▁keen	-13978
arette	-13979
▁Creative	-13980
wal	-13981
▁105	-13982
▁Oscar	-13983
▁shaped	-13984
attering	-13985
▁dealers	-13986
▁presumably	-13987
amy	-13988
iliation	-13989
▁qualify	-13990
▁secured	-13991
▁IG	-13992
bean	-13993
▁burden	-13994
▁Leaders	-13995
▁holders	-13996
▁electrical	-13997
▁Might	-13998
▁Visual	-13999
▁museum	-14000
▁praise	-14001
▁capability	-14002
▁transgender	-14003
▁DB	-14004
▁boats	-14005
▁besides	-14006
▁licensed	-14007
gree	-14008
▁boo	-14009
▁Ship	-14010
ylon	-14011
▁Budget	-14012
▁colored	-14013
▁shoulders	-14014
▁practically	-14015
Wind	-14016
peror	-14017
______	-14018
▁auction	-14019
▁produces	-14020
04	-14021
Ed	-14022
▁Camera	-14023
▁admits	-14024
▁wishes	-14025
▁parameter	-14026
Eng	-14027
tab	-14028
▁lag	-14029
▁corps	-14030
▁dispute	-14031
▁marginal	-14032
▁downloads	-14033
▁90&	-14034
▁timer	-14035
▁commod	-14036
▁diameter	-14037
▁Jerusalem	-14038
▁operational	-14039
pi	-14040
oat	-14041
▁lb	-14042
▁luc	-14043
▁vib	-14044
▁males	-14045
▁proxy	-14046
▁theft	-14047
dates	-14048
otypes	-14049
▁bitter	-14050
▁crypto	-14051
▁tremend	-14052
▁inevitable	-14053
▁HQ	-14054
▁grip	-14055
▁emphasis	-14056
▁failures	-14057
OTH	-14058
acs	-14059
Black	-14060
iquid	-14061
▁devoted	-14062
▁wireless	-14063
▁XL	-14064
▁permanently	-14065
▁STR	-14066
▁jar	-14067
▁til	-14068
onies	-14069
▁Glenn	-14070
▁Jamie	-14071
▁icons	-14072
bat	-14073
▁Cz	-14074
▁bip	-14075
▁loot	-14076
▁Maria	-14077
ryption	-14078
▁Events	-14079
▁invested	-14080
▁TB	-14081
matic	-14082
▁buddy	-14083
▁Comics	-14084
▁premier	-14085
▁Starting	-14086
income	-14087
▁Kerry	-14088
▁farming	-14089
▁pending	-14090
▁stunning	-14091
▁Pi	-14092
▁Bah	-14093
ellar	-14094
▁gotta	-14095
▁Madison	-14096
▁randomly	-14097
▁addressing	-14098
▁celebration	-14099
FW	-14100
▁BP	-14101
▁Dru	-14102
▁liv	-14103
▁outfit	-14104
▁resort	-14105
▁islands	-14106
▁chemicals	-14107
Bay	-14108
polit	-14109
▁Hyper	-14110
▁asylum	-14111
700	-14112
ido	-14113
▁ate	-14114
▁scal	-14115
▁edges	-14116
▁Walter	-14117
▁imperial	-14118
▁celebrated	-14119
▁fork	-14120
▁fuckah	-14121
▁Montreal	-14122
▁GA	-14123
oven	-14124
▁Benjamin	-14125
spr	-14126
▁NW	-14127
▁Kay	-14128
▁noon	-14129
▁themes	-14130
▁fitting	-14131
▁societies	-14132
▁Okay	-14133
▁succ	-14134
ainted	-14135
▁betray	-14136
▁sod	-14137
▁applying	-14138
▁Assistant	-14139
▁hilarious	-14140
upt	-14141
▁EST	-14142
▁rides	-14143
▁Turner	-14144
▁Stanley	-14145
▁manipulation	-14146
asa	-14147
▁Boys	-14148
▁Shot	-14149
▁soup	-14150
amation	-14151
▁hybrid	-14152
JP	-14153
NO	-14154
▁SB	-14155
length	-14156
▁align	-14157
▁touched	-14158
▁bacteria	-14159
▁proportion	-14160
vl	-14161
▁tire	-14162
isco	-14163
video	-14164
▁fitness	-14165
▁holidays	-14166
▁recovered	-14167
▁teammates	-14168
▁Esc	-14169
▁Whe	-14170
status	-14171
▁preserve	-14172
▁24-	-14173
▁sel	-14174
▁Dance	-14175
▁demol	-14176
▁grocery	-14177
▁peoples	-14178
OND	-14179
▁rack	-14180
▁turb	-14181
▁Lions	-14182
▁pilots	-14183
HC	-14184
▁Along	-14185
▁Eight	-14186
Pr	-14187
uting	-14188
▁1991	-14189
▁HTTP	-14190
▁ranging	-14191
ICS	-14192
▁$8	-14193
▁Saw	-14194
▁dod	-14195
▁Active	-14196
▁lineup	-14197
▁mapping	-14198
▁Ple	-14199
▁mice	-14200
▁robots	-14201
liminary	-14202
▁gravity	-14203
▁destroying	-14204
/20	-14205
uffle	-14206
▁candy	-14207
▁Potter	-14208
▁Unless	-14209
▁Speaker	-14210
▁attribute	-14211
▁downloaded	-14212
▁perception	-14213
ocker	-14214
psy	-14215
alph	-14216
▁Traff	-14217
profile	-14218
▁anonym	-14219
▁avoided	-14220
)?	-14221
▁gates	-14222
▁globe	-14223
▁shore	-14224
▁offshore	-14225
▁inflation	-14226
▁criticized	-14227
▁temporarily	-14228
▁dramatically	-14229
ONS	-14230
▁Sandy	-14231
▁expend	-14232
▁MT	-14233
ocur	-14234
fight	-14235
▁summit	-14236
▁grasp	-14237
▁switched	-14238
Sub	-14239
sis	-14240
2]	-14241
▁quad	-14242
▁litter	-14243
▁sooner	-14244
▁vendor	-14245
▁cultures	-14246
government	-14247
▁Application	-14248
▁alternatives	-14249
.),	-14250
ayed	-14251
imer	-14252
priv	-14253
ulin	-14254
▁stays	-14255
▁evaluation	-14256
▁1975	-14257
▁spur	-14258
▁Occup	-14259
▁distant	-14260
▁deserves	-14261
▁wore	-14262
anking	-14263
▁Corps	-14264
▁considerable	-14265
▁gn	-14266
▁migration	-14267
▁manufacturer	-14268
EA	-14269
▁Hack	-14270
▁paras	-14271
▁regards	-14272
okesperson	-14273
adesh	-14274
▁shoe	-14275
thread	-14276
▁Compan	-14277
▁Multiple	-14278
▁1989	-14279
▁Pete	-14280
▁Snap	-14281
▁nost	-14282
Ac	-14283
bye	-14284
umns	-14285
▁1.4	-14286
▁Dise	-14287
▁blur	-14288
▁gaining	-14289
▁Professional	-14290
hal	-14291
▁xx	-14292
entry	-14293
oline	-14294
▁Bears	-14295
arettes	-14296
▁gallery	-14297
▁automated	-14298
Fil	-14299
det	-14300
▁Ko	-14301
▁(2)	-14302
▁unre	-14303
Set	-14304
▁1%	-14305
bris	-14306
▁Were	-14307
▁Around	-14308
▁Valent	-14309
▁orientation	-14310
▁Commissioner	-14311
▁Parad	-14312
▁Oliver	-14313
▁clearing	-14314
▁interactive	-14315
▁prosecutors	-14316
.*	-14317
math	-14318
▁ups	-14319
▁chunk	-14320
▁waited	-14321
▁Unknown	-14322
▁prevented	-14323
camp	-14324
▁ink	-14325
shine	-14326
▁rend	-14327
▁Gaming	-14328
▁Philip	-14329
▁convey	-14330
▁crowds	-14331
▁wrestling	-14332
▁recruiting	-14333
▁NCAA	-14334
▁Request	-14335
▁cooling	-14336
▁terrain	-14337
▁acknowledge	-14338
▁Clar	-14339
▁Shell	-14340
urities	-14341
▁puzzle	-14342
▁reluct	-14343
▁exploring	-14344
hots	-14345
ooks	-14346
▁Sho	-14347
▁drill	-14348
▁fiber	-14349
▁editorial	-14350
▁conservation	-14351
▁TL	-14352
atable	-14353
▁jumps	-14354
itative	-14355
▁Reason	-14356
astically	-14357
▁limitations	-14358
▁advertisement	-14359
▁Dod	-14360
▁crops	-14361
▁dealer	-14362
▁Pokémon	-14363
▁replied	-14364
▁intelligent	-14365
▁arrangements	-14366
▁++	-14367
lies	-14368
plant	-14369
accept	-14370
▁airpl	-14371
▁starter	-14372
▁ministry	-14373
Inst	-14374
pher	-14375
▁ski	-14376
▁Maine	-14377
▁Yemen	-14378
writing	-14379
▁Mechan	-14380
▁Script	-14381
▁forming	-14382
▁Arkansas	-14383
▁backwards	-14384
▁calculated	-14385
▁thoroughly	-14386
El	-14387
▁Beer	-14388
▁Prize	-14389
▁detention	-14390
▁phenomenon	-14391
ulu	-14392
▁(9	-14393
riel	-14394
▁twin	-14395
itated	-14396
unting	-14397
▁2009,	-14398
▁Eagle	-14399
▁Initi	-14400
▁interactions	-14401
amily	-14402
▁Lead	-14403
▁logging	-14404
▁talented	-14405
▁districts	-14406
▁transparent	-14407
ahl	-14408
▁Vo	-14409
input	-14410
▁dwar	-14411
▁stabil	-14412
▁deficit	-14413
▁taxpayers	-14414
▁py	-14415
▁UTC	-14416
▁saves	-14417
▁bypass	-14418
▁eliminated	-14419
▁Furthermore	-14420
bank	-14421
▁Bio	-14422
▁Mall	-14423
ATIONS	-14424
▁teens	-14425
▁Bishop	-14426
▁Blues	-14427
▁Sched	-14428
flu	-14429
▁crude	-14430
▁sheer	-14431
▁texts	-14432
▁masses	-14433
▁Islands	-14434
▁syndrome	-14435
MAN	-14436
eor	-14437
▁Crow	-14438
▁Serge	-14439
▁genius	-14440
▁singer	-14441
▁Industry	-14442
avid	-14443
▁Pas	-14444
leading	-14445
▁Peters	-14446
▁boundaries	-14447
▁Transportation	-14448
▁IL	-14449
opic	-14450
rait	-14451
▁Brooks	-14452
▁treatments	-14453
▁Kin	-14454
▁excitement	-14455
▁disappointed	-14456
ORS	-14457
/2014	-14458
aying	-14459
rones	-14460
asures	-14461
mediate	-14462
▁dining	-14463
▁unions	-14464
▁overcome	-14465
▁militants	-14466
▁preventing	-14467
▁productive	-14468
▁disappeared	-14469
yram	-14470
▁spar	-14471
▁kicks	-14472
▁departments	-14473
loc	-14474
▁Hour	-14475
▁Lang	-14476
handed	-14477
NN	-14478
span	-14479
▁url	-14480
plates	-14481
▁Rogers	-14482
▁impacts	-14483
▁formerly	-14484
pic	-14485
asis	-14486
▁replies	-14487
▁shifting	-14488
▁projected	-14489
▁RS	-14490
▁Brus	-14491
▁inaug	-14492
▁ecosystem	-14493
▁unprecedented	-14494
▁MR	-14495
▁15-	-14496
After	-14497
▁leap	-14498
PH	-14499
nic	-14500
▁RED	-14501
ctors	-14502
▁punish	-14503
▁capitalism	-14504
▁underneath	-14505
▁encountered	-14506
▁Wo	-14507
▁Rate	-14508
▁Horse	-14509
▁Rachel	-14510
▁modest	-14511
▁shorter	-14512
▁releasing	-14513
▁Presidential	-14514
▁Veh	-14515
▁Alien	-14516
▁verify	-14517
▁worship	-14518
▁activated	-14519
▁performances	-14520
▁(11	-14521
▁Fitz	-14522
▁wreck	-14523
▁Celebr	-14524
▁cattle	-14525
MD	-14526
▁von	-14527
▁gram	-14528
▁sinc	-14529
▁cookies	-14530
▁breathing	-14531
▁gradually	-14532
▁bog	-14533
▁Wiki	-14534
▁antib	-14535
▁Denium	-14536
▁utterly	-14537
▁sporting	-14538
▁infection	-14539
▁Federation	-14540
▁disappoint	-14541
uer	-14542
iege	-14543
▁Him	-14544
▁Write	-14545
▁greed	-14546
▁hazard	-14547
▁emotions	-14548
▁prevention	-14549
▁consecutive	-14550
▁instruments	-14551
▁investigated	-14552
far	-14553
▁6:	-14554
▁Palace	-14555
▁Pretty	-14556
▁Prison	-14557
▁popularity	-14558
▁accidentally	-14559
make	-14560
▁Agr	-14561
▁pix	-14562
▁Slow	-14563
▁Remove	-14564
▁charts	-14565
▁Feature	-14566
▁arguing	-14567
▁Sessions	-14568
▁5%	-14569
▁Edge	-14570
▁Libya	-14571
▁catast	-14572
""	-14573
oday	-14574
▁Maj	-14575
▁absent	-14576
▁threshold	-14577
tag	-14578
GP	-14579
VR	-14580
Min	-14581
▁divid	-14582
▁Giants	-14583
▁discipline	-14584
Ke	-14585
ICT	-14586
Reg	-14587
eger	-14588
illo	-14589
mode	-14590
▁fled	-14591
▁pork	-14592
public	-14593
▁Poland	-14594
▁catalog	-14595
▁teenage	-14596
▁tutorial	-14597
▁explicitly	-14598
zan	-14599
▁Git	-14600
perform	-14601
▁leaked	-14602
▁elderly	-14603
▁organisation	-14604
ORD	-14605
▁Pad	-14606
▁nan	-14607
▁orb	-14608
suits	-14609
▁moist	-14610
Reuters	-14611
▁playoff	-14612
gas	-14613
Item	-14614
▁Thor	-14615
▁Connecticut	-14616
icky	-14617
▁80%	-14618
▁Roc	-14619
▁Sword	-14620
achment	-14621
▁discrimin	-14622
▁(7	-14623
legal	-14624
▁Beta	-14625
▁Driver	-14626
▁hungry	-14627
▁anytime	-14628
▁Strength	-14629
▁infamous	-14630
▁timeline	-14631
▁villages	-14632
▁Mt	-14633
comed	-14634
▁cure	-14635
▁polling	-14636
zh	-14637
▁Tak	-14638
▁shelf	-14639
atching	-14640
▁coding	-14641
▁Communist	-14642
fc	-14643
Cal	-14644
▁Cu	-14645
cies	-14646
▁1988	-14647
▁href	-14648
▁shar	-14649
,000.	-14650
achel	-14651
▁Feel	-14652
▁sher	-14653
ickets	-14654
▁Cyber	-14655
default	-14656
▁Amazing	-14657
▁Springs	-14658
▁Imperial	-14659
wiki	-14660
▁Wow	-14661
▁HAVE	-14662
▁Horn	-14663
▁Quarter	-14664
ADE	-14665
▁Bou	-14666
▁DIY	-14667
chair	-14668
atical	-14669
talk	-14670
▁Ing	-14671
▁Nam	-14672
▁piv	-14673
orient	-14674
rypted	-14675
▁Figure	-14676
▁Tumblr	-14677
▁derived	-14678
▁painful	-14679
▁Michelle	-14680
▁branches	-14681
▁detected	-14682
▁Hampshire	-14683
▁designers	-14684
3-	-14685
azor	-14686
▁aesth	-14687
▁receives	-14688
lit	-14689
▁Hud	-14690
▁Dust	-14691
▁clips	-14692
▁beside	-14693
▁arrives	-14694
▁bedroom	-14695
▁satisfied	-14696
▁oun	-14697
▁visa	-14698
nation	-14699
▁transfers	-14700
vid	-14701
▁clouds	-14702
▁KN	-14703
▁$40	-14704
▁tends	-14705
▁pursuit	-14706
▁Election	-14707
▁Learning	-14708
cot	-14709
▁macro	-14710
▁Results	-14711
▁Obamacare	-14712
▁complexity	-14713
▁nomination	-14714
UK	-14715
src	-14716
help	-14717
uffs	-14718
▁beast	-14719
▁christ	-14720
▁cotton	-14721
▁outstanding	-14722
▁CAP	-14723
▁Reed	-14724
▁brick	-14725
▁pressed	-14726
▁flexible	-14727
▁connecting	-14728
09	-14729
init	-14730
uper	-14731
izards	-14732
▁Silicon	-14733
▁Jennifer	-14734
▁resolved	-14735
rh	-14736
etti	-14737
onut	-14738
otto	-14739
ussy	-14740
▁Brain	-14741
▁defeated	-14742
▁presidency	-14743
▁communicate	-14744
▁deliberately	-14745
:\	-14746
▁hug	-14747
atted	-14748
▁bang	-14749
semble	-14750
▁twelve	-14751
▁reaches	-14752
▁Alf	-14753
▁Kas	-14754
▁Hide	-14755
erness	-14756
▁voltage	-14757
▁tourists	-14758
rl	-14759
.14	-14760
></	-14761
atal	-14762
inals	-14763
▁1920	-14764
▁migr	-14765
▁mold	-14766
▁existed	-14767
▁Kurdish	-14768
▁passive	-14769
▁compound	-14770
Att	-14771
ierra	-14772
▁burg	-14773
▁logical	-14774
rose	-14775
▁Naz	-14776
inate	-14777
▁supre	-14778
▁solved	-14779
▁custody	-14780
▁Citizens	-14781
vd	-14782
▁yo	-14783
▁bonds	-14784
GC	-14785
VC	-14786
▁FIR	-14787
▁Nag	-14788
▁banner	-14789
▁gamers	-14790
▁symbols	-14791
▁Explicit	-14792
▁amendment	-14793
123	-14794
tha	-14795
iker	-14796
oner	-14797
irable	-14798
▁fixing	-14799
▁lately	-14800
▁inspection	-14801
▁spokesperson	-14802
riger	-14803
▁Curt	-14804
▁ineff	-14805
rations	-14806
▁wholes	-14807
ortunate	-14808
▁approaching	-14809
leased	-14810
▁parked	-14811
▁longtime	-14812
▁Daw	-14813
▁clone	-14814
▁pulls	-14815
▁anchor	-14816
▁earthqu	-14817
▁educated	-14818
▁dominated	-14819
▁explosion	-14820
▁demonstration	-14821
:/	-14822
Em	-14823
Mus	-14824
▁3)	-14825
lean	-14826
▁REL	-14827
▁Pull	-14828
▁Woods	-14829
▁grows	-14830
▁indul	-14831
▁Milers	-14832
▁Ottawa	-14833
▁strain	-14834
Class	-14835
▁beats	-14836
▁Annual	-14837
▁Nether	-14838
▁retain	-14839
▁9:	-14840
▁12.	-14841
valid	-14842
▁Shaw	-14843
▁Bring	-14844
▁disgu	-14845
▁pledge	-14846
▁immigrant	-14847
▁GC	-14848
pose	-14849
▁Abu	-14850
aires	-14851
process	-14852
▁rivals	-14853
▁earning	-14854
▁Eventually	-14855
!),	-14856
imir	-14857
▁whit	-14858
▁permits	-14859
▁watches	-14860
▁complaining	-14861
/?	-14862
vs	-14863
▁GS	-14864
aley	-14865
retion	-14866
▁sacrific	-14867
▁revealing	-14868
▁INTER	-14869
▁revenge	-14870
activ	-14871
▁HER	-14872
▁Brexit	-14873
▁Except	-14874
▁repeal	-14875
irs	-14876
▁Cinc	-14877
▁Tank	-14878
▁popul	-14879
▁Behind	-14880
▁stance	-14881
mination	-14882
▁investor	-14883
▁magazines	-14884
▁Especially	-14885
UTC	-14886
tarian	-14887
▁Laura	-14888
▁interven	-14889
▁searches	-14890
▁administrative	-14891
▁len	-14892
▁pup	-14893
▁sixth	-14894
▁prosper	-14895
▁remembered	-14896
▁productivity	-14897
▁Dash	-14898
▁liver	-14899
▁stones	-14900
▁nutrition	-14901
▁helicopter	-14902
▁publications	-14903
eto	-14904
▁gods	-14905
▁2008,	-14906
▁Patch	-14907
▁freak	-14908
ountain	-14909
tains	-14910
▁extr	-14911
▁Blake	-14912
▁100,000	-14913
plan	-14914
opard	-14915
▁Mack	-14916
▁beans	-14917
▁clinic	-14918
▁density	-14919
▁labeled	-14920
▁Mississippi	-14921
Gl	-14922
[/	-14923
ggy	-14924
▁\"	-14925
ourt	-14926
▁UFC	-14927
▁Skin	-14928
▁kits	-14929
▁filming	-14930
▁Malaysia	-14931
▁forecast	-14932
▁precision	-14933
appropriate	-14934
beit	-14935
▁Finn	-14936
▁inquiry	-14937
▁inclusion	-14938
kit	-14939
irmed	-14940
ounge	-14941
▁Fear	-14942
▁Gonz	-14943
▁denial	-14944
▁throws	-14945
▁lacking	-14946
▁survivors	-14947
aru	-14948
▁Rio	-14949
▁Fine	-14950
▁iPad	-14951
▁Jesse	-14952
▁exter	-14953
▁aliens	-14954
▁youtube	-14955
▁compiled	-14956
▁Hurricane	-14957
▁spokeswoman	-14958
▁subscription	-14959
)."	-14960
ibl	-14961
unn	-14962
seen	-14963
▁4.5	-14964
ipple	-14965
ardless	-14966
.15	-14967
▁-1	-14968
ometer	-14969
▁Satan	-14970
▁Score	-14971
▁viable	-14972
▁Publish	-14973
▁Medicaid	-14974
phere	-14975
▁fond	-14976
▁Tools	-14977
▁survived	-14978
▁daughters	-14979
▁referendum	-14980
usr	-14981
Over	-14982
urtle	-14983
▁grind	-14984
▁citing	-14985
▁imprison	-14986
▁profound	-14987
Any	-14988
ODE	-14989
lynn	-14990
▁1500	-14991
▁Boot	-14992
▁pedest	-14993
▁hostile	-14994
▁Enterprise	-14995
anz	-14996
▁Fri	-14997
ombies	-14998
▁lever	-14999
▁lifted	-15000
▁lyrics	-15001
▁attitudes	-15002
▁imagination	-15003
▁Compl	-15004
▁Purch	-15005
▁swift	-15006
develop	-15007
▁ignorance	-15008
Hand	-15009
▁Cash	-15010
▁Task	-15011
▁foul	-15012
▁Cards	-15013
▁bucks	-15014
▁Masters	-15015
ictionary	-15016
Part	-15017
▁Bright	-15018
▁liberty	-15019
▁incoming	-15020
vals	-15021
▁sib	-15022
▁bout	-15023
▁Eagles	-15024
▁Fergus	-15025
▁ambassador	-15026
▁Dad	-15027
▁unh	-15028
▁chase	-15029
edi	-15030
htm	-15031
▁Fuck	-15032
▁Neigh	-15033
▁chron	-15034
▁sensors	-15035
▁Egyptian	-15036
oko	-15037
▁WAS	-15038
▁1968	-15039
▁Roth	-15040
▁Train	-15041
▁crews	-15042
▁composition	-15043
.).	-15044
Hey	-15045
▁-0	-15046
▁Stuff	-15047
▁indie	-15048
▁sucks	-15049
▁assuming	-15050
▁RPG	-15051
▁upside	-15052
▁peaceful	-15053
▁commented	-15054
▁publicity	-15055
··	-15056
tering	-15057
▁cooked	-15058
Size	-15059
▁sanct	-15060
▁expose	-15061
▁sympath	-15062
ropolitan	-15063
▁applicable	-15064
▁neighborhoods	-15065
▁YES	-15066
ulsion	-15067
▁Singh	-15068
▁lined	-15069
▁mixing	-15070
▁Barbara	-15071
▁Chicken	-15072
ARK	-15073
▁Vari	-15074
▁lord	-15075
▁freeze	-15076
▁patron	-15077
▁volumes	-15078
asha	-15079
▁Yam	-15080
rities	-15081
▁digit	-15082
▁fifty	-15083
▁taxpayer	-15084
▁ga	-15085
▁Zion	-15086
ospher	-15087
irection	-15088
▁LP	-15089
asive	-15090
▁Focus	-15091
▁Circle	-15092
▁vector	-15093
AZ	-15094
fd	-15095
▁8-	-15096
▁8:	-15097
John	-15098
eled	-15099
▁();	-15100
▁Mitt	-15101
dad	-15102
wau	-15103
cond	-15104
half	-15105
othy	-15106
zilla	-15107
quality	-15108
▁debates	-15109
▁realistic	-15110
Men	-15111
▁um	-15112
player	-15113
▁Favor	-15114
▁hatred	-15115
▁resemb	-15116
▁dominant	-15117
fit	-15118
▁stamp	-15119
▁Rangers	-15120
▁washing	-15121
▁cancelled	-15122
▁observations	-15123
▁kg	-15124
oped	-15125
▁maj	-15126
▁Drew	-15127
▁Gang	-15128
▁hated	-15129
▁unclear	-15130
▁translate	-15131
▁Introduction	-15132
anity	-15133
shirts	-15134
▁prest	-15135
▁vigil	-15136
▁McCain	-15137
▁Phillips	-15138
.")	-15139
atile	-15140
▁traded	-15141
▁incentives	-15142
ERT	-15143
emy	-15144
▁Tommy	-15145
▁Switzer	-15146
gregation	-15147
▁defender	-15148
▁ub	-15149
have	-15150
rane	-15151
▁GMT	-15152
▁PAC	-15153
▁hind	-15154
osures	-15155
▁handy	-15156
▁loses	-15157
▁Warriors	-15158
▁contributing	-15159
Pre	-15160
files	-15161
▁partly	-15162
▁unlock	-15163
▁acquisition	-15164
ETH	-15165
wick	-15166
▁EPA	-15167
▁gauge	-15168
▁Combat	-15169
▁trades	-15170
▁Treasury	-15171
▁generating	-15172
▁politician	-15173
ais	-15174
lict	-15175
▁complained	-15176
▁mim	-15177
▁Blade	-15178
▁Wallace	-15179
▁Russians	-15180
▁Emergency	-15181
ettes	-15182
▁rebels	-15183
▁convenience	-15184
▁agricultural	-15185
bid	-15186
▁bil	-15187
CTION	-15188
▁Diet	-15189
abetes	-15190
▁penis	-15191
▁ordering	-15192
▁celeb	-15193
▁Physical	-15194
trl	-15195
▁Few	-15196
innati	-15197
▁blade	-15198
▁sacrifice	-15199
▁containers	-15200
je	-15201
OSS	-15202
▁CG	-15203
eption	-15204
▁Craft	-15205
▁Worth	-15206
▁Weapon	-15207
▁therap	-15208
▁ensuring	-15209
▁upgrades	-15210
▁dy	-15211
▁Dawn	-15212
verted	-15213
▁fisher	-15214
▁temple	-15215
▁appointment	-15216
▁Juan	-15217
▁pets	-15218
▁tokens	-15219
▁generator	-15220
▁appreciated	-15221
chen	-15222
clip	-15223
oder	-15224
First	-15225
ealous	-15226
▁Female	-15227
▁Normal	-15228
▁linear	-15229
▁Cambridge	-15230
▁penalties	-15231
▁organizing	-15232
▁agriculture	-15233
▁7:	-15234
▁Verm	-15235
▁quantity	-15236
▁workplace	-15237
▁50-	-15238
/2013	-15239
▁Chase	-15240
▁Verizon	-15241
▁liability	-15242
uez	-15243
▁lips	-15244
▁summar	-15245
▁FB	-15246
Mark	-15247
cled	-15248
▁soap	-15249
▁cance	-15250
▁idiot	-15251
▁;)	-15252
INGS	-15253
▁240	-15254
▁Bald	-15255
▁beaten	-15256
▁mature	-15257
▁deposit	-15258
▁hearings	-15259
▁touching	-15260
▁substitute	-15261
▁Cel	-15262
▁ripped	-15263
▁contractors	-15264
▁11.	-15265
▁Arn	-15266
▁Tap	-15267
▁DOWN	-15268
▁parade	-15269
▁Previous	-15270
▁wildlife	-15271
▁Bash	-15272
celona	-15273
▁Wells	-15274
▁shine	-15275
itas	-15276
▁POL	-15277
▁POW	-15278
ften	-15279
ribly	-15280
▁Assad	-15281
▁dwell	-15282
▁doesnt	-15283
▁sectors	-15284
▁processor	-15285
▁locker	-15286
▁Arsenal	-15287
ELY	-15288
▁WWE	-15289
▁Matter	-15290
▁blowing	-15291
▁tribute	-15292
▁employer	-15293
▁Canadians	-15294
▁MIN	-15295
arthy	-15296
▁ende	-15297
▁rows	-15298
▁incon	-15299
▁Carlos	-15300
▁costume	-15301
then	-15302
waukee	-15303
▁delays	-15304
▁robust	-15305
election	-15306
▁crafted	-15307
▁females	-15308
▁departure	-15309
▁:=	-15310
uddy	-15311
▁hex	-15312
▁thy	-15313
prises	-15314
▁artif	-15315
▁Taking	-15316
▁possess	-15317
▁advocate	-15318
Car	-15319
▁$0	-15320
ollo	-15321
oooo	-15322
▁Nancy	-15323
▁Mormon	-15324
▁entert	-15325
▁arrests	-15326
▁annually	-15327
MO	-15328
live	-15329
former	-15330
▁Issue	-15331
▁Swift	-15332
▁Coming	-15333
▁donate	-15334
▁occupied	-15335
▁Tournament	-15336
▁OB	-15337
▁Mist	-15338
▁Castle	-15339
!!!!!!!!	-15340
▁counted	-15341
ULT	-15342
hey	-15343
????	-15344
▁DLC	-15345
▁Dro	-15346
▁IRS	-15347
▁Nord	-15348
▁aluminum	-15349
erie	-15350
▁gem	-15351
▁unity	-15352
▁rabbit	-15353
▁avoiding	-15354
:54	-15355
again	-15356
▁FUCK	-15357
ullivan	-15358
▁prints	-15359
▁Construction	-15360
too	-15361
▁Shin	-15362
▁tender	-15363
▁throat	-15364
-05	-15365
nik	-15366
▁SV	-15367
▁resur	-15368
lash	-15369
▁1967	-15370
▁1984	-15371
▁Lots	-15372
▁ally	-15373
▁bush	-15374
▁mesh	-15375
▁Chaos	-15376
▁Pearl	-15377
▁aboard	-15378
▁invented	-15379
amon	-15380
▁BIG	-15381
▁cans	-15382
▁Simply	-15383
original	-15384
▁sponsors	-15385
2/	-15386
▁Kaz	-15387
▁sweep	-15388
▁Bottom	-15389
▁Forces	-15390
▁processed	-15391
ieval	-15392
funded	-15393
▁protocols	-15394
▁conviction	-15395
▁vag	-15396
▁Koch	-15397
▁cage	-15398
▁Rated	-15399
▁modify	-15400
▁shorts	-15401
▁Operations	-15402
igue	-15403
ocide	-15404
▁Palm	-15405
▁cooler	-15406
▁resume	-15407
▁expects	-15408
▁motivated	-15409
▁characteristics	-15410
Ah	-15411
bul	-15412
prov	-15413
▁weaken	-15414
▁reserves	-15415
▁synchron	-15416
▁accounting	-15417
[...]
